/* Copyright 2018 The TensorFlow Authors. All Rights Reserved.

Licensed under the Apache License, Version 2.0 (the "License");
you may not use this file except in compliance with the License.
You may obtain a copy of the License at

    http://www.apache.org/licenses/LICENSE-2.0

Unless required by applicable law or agreed to in writing, software
distributed under the License is distributed on an "AS IS" BASIS,
WITHOUT WARRANTIES OR CONDITIONS OF ANY KIND, either express or implied.
See the License for the specific language governing permissions and
limitations under the License.
==============================================================================*/

// Automatically created from a TensorFlow Lite flatbuffer using the command:
// xxd -i tiny_conv.tflite > tiny_conv_simple_features_model_data.cc
// See the README for a full description of the creation process.

#include "micro_features_tiny_conv_micro_features_model_data.h"

// We need to keep the data array aligned on some architectures.
#ifdef __has_attribute
#define HAVE_ATTRIBUTE(x) __has_attribute(x)
#else
#define HAVE_ATTRIBUTE(x) 0
#endif
#if HAVE_ATTRIBUTE(aligned) || (defined(__GNUC__) && !defined(__clang__))
#define DATA_ALIGN_ATTRIBUTE __attribute__((aligned(4)))
#else
#define DATA_ALIGN_ATTRIBUTE
#endif

const unsigned char
    g_tiny_conv_micro_features_model_data[] DATA_ALIGN_ATTRIBUTE = {
        0x1c, 0x00, 0x00, 0x00, 0x54, 0x46, 0x4c, 0x33, 0x00, 0x00, 0x12, 0x00,
  0x1c, 0x00, 0x04, 0x00, 0x08, 0x00, 0x0c, 0x00, 0x10, 0x00, 0x14, 0x00,
  0x00, 0x00, 0x18, 0x00, 0x12, 0x00, 0x00, 0x00, 0x03, 0x00, 0x00, 0x00,
  0x74, 0x37, 0x00, 0x00, 0x10, 0x00, 0x00, 0x00, 0x1c, 0x00, 0x00, 0x00,
  0x2c, 0x00, 0x00, 0x00, 0x0c, 0x00, 0x00, 0x00, 0x01, 0x00, 0x00, 0x00,
  0xc0, 0x00, 0x00, 0x00, 0x01, 0x00, 0x00, 0x00, 0x94, 0x00, 0x00, 0x00,
  0x0f, 0x00, 0x00, 0x00, 0x54, 0x4f, 0x43, 0x4f, 0x20, 0x43, 0x6f, 0x6e,
  0x76, 0x65, 0x72, 0x74, 0x65, 0x64, 0x2e, 0x00, 0x0a, 0x00, 0x00, 0x00,
  0x60, 0x00, 0x00, 0x00, 0x54, 0x00, 0x00, 0x00, 0x48, 0x00, 0x00, 0x00,
  0x3c, 0x00, 0x00, 0x00, 0x34, 0x00, 0x00, 0x00, 0x2c, 0x00, 0x00, 0x00,
  0x20, 0x00, 0x00, 0x00, 0x18, 0x00, 0x00, 0x00, 0x10, 0x00, 0x00, 0x00,
  0x04, 0x00, 0x00, 0x00, 0xb6, 0xc9, 0xff, 0xff, 0x38, 0x00, 0x00, 0x00,
  0x64, 0xc9, 0xff, 0xff, 0x68, 0xc9, 0xff, 0xff, 0xc6, 0xc9, 0xff, 0xff,
  0xe0, 0x01, 0x00, 0x00, 0x74, 0xc9, 0xff, 0xff, 0x78, 0xc9, 0xff, 0xff,
  0xd6, 0xc9, 0xff, 0xff, 0x60, 0x03, 0x00, 0x00, 0xde, 0xc9, 0xff, 0xff,
  0x7c, 0x06, 0x00, 0x00, 0xe6, 0xc9, 0xff, 0xff, 0xc4, 0x35, 0x00, 0x00,
  0x94, 0xc9, 0xff, 0xff, 0x05, 0x00, 0x00, 0x00, 0x31, 0x2e, 0x35, 0x2e,
  0x30, 0x00, 0x00, 0x00, 0x08, 0x00, 0x0c, 0x00, 0x04, 0x00, 0x08, 0x00,
  0x08, 0x00, 0x00, 0x00, 0x08, 0x00, 0x00, 0x00, 0x09, 0x00, 0x00, 0x00,
  0x13, 0x00, 0x00, 0x00, 0x6d, 0x69, 0x6e, 0x5f, 0x72, 0x75, 0x6e, 0x74,
  0x69, 0x6d, 0x65, 0x5f, 0x76, 0x65, 0x72, 0x73, 0x69, 0x6f, 0x6e, 0x00,
  0x10, 0xfa, 0xff, 0xff, 0x20, 0x00, 0x00, 0x00, 0x14, 0x00, 0x00, 0x00,
  0x08, 0x00, 0x00, 0x00, 0x84, 0x35, 0x00, 0x00, 0x01, 0x00, 0x00, 0x00,
  0x05, 0x00, 0x00, 0x00, 0x01, 0x00, 0x00, 0x00, 0x03, 0x00, 0x00, 0x00,
  0x08, 0x00, 0x00, 0x00, 0x04, 0x01, 0x00, 0x00, 0xfc, 0x34, 0x00, 0x00,
  0x8c, 0x00, 0x00, 0x00, 0x14, 0x00, 0x00, 0x00, 0xdc, 0x01, 0x00, 0x00,
  0x68, 0x01, 0x00, 0x00, 0x3c, 0x02, 0x00, 0x00, 0x50, 0x05, 0x00, 0x00,
  0x2e, 0xcb, 0xff, 0xff, 0x00, 0x00, 0x00, 0x03, 0x10, 0x00, 0x00, 0x00,
  0x08, 0x00, 0x00, 0x00, 0x1c, 0x00, 0x00, 0x00, 0x28, 0x00, 0x00, 0x00,
  0x04, 0x00, 0x00, 0x00, 0x01, 0x00, 0x00, 0x00, 0x31, 0x00, 0x00, 0x00,
  0x28, 0x00, 0x00, 0x00, 0x01, 0x00, 0x00, 0x00, 0x09, 0x00, 0x00, 0x00,
  0x52, 0x65, 0x73, 0x68, 0x61, 0x70, 0x65, 0x5f, 0x32, 0x00, 0x00, 0x00,
  0x94, 0xfa, 0xff, 0xff, 0x2c, 0x00, 0x00, 0x00, 0x20, 0x00, 0x00, 0x00,
  0x14, 0x00, 0x00, 0x00, 0x04, 0x00, 0x00, 0x00, 0x01, 0x00, 0x00, 0x00,
  0x00, 0x00, 0x00, 0x00, 0x00, 0x00, 0x00, 0x00, 0x01, 0x00, 0x00, 0x00,
  0xc6, 0xd0, 0xd0, 0x3d, 0x01, 0x00, 0x00, 0x00, 0xf5, 0xff, 0xcf, 0x41,
  0x01, 0x00, 0x00, 0x00, 0x00, 0x00, 0x00, 0x00, 0xa2, 0xcb, 0xff, 0xff,
  0x00, 0x00, 0x00, 0x03, 0x10, 0x00, 0x00, 0x00, 0x07, 0x00, 0x00, 0x00,
  0x1c, 0x00, 0x00, 0x00, 0x24, 0x00, 0x00, 0x00, 0x04, 0x00, 0x00, 0x00,
  0x01, 0x00, 0x00, 0x00, 0x19, 0x00, 0x00, 0x00, 0x14, 0x00, 0x00, 0x00,
  0x08, 0x00, 0x00, 0x00, 0x04, 0x00, 0x00, 0x00, 0x52, 0x65, 0x6c, 0x75,
  0x00, 0x00, 0x00, 0x00, 0x04, 0xfb, 0xff, 0xff, 0x2c, 0x00, 0x00, 0x00,
  0x20, 0x00, 0x00, 0x00, 0x14, 0x00, 0x00, 0x00, 0x04, 0x00, 0x00, 0x00,
  0x01, 0x00, 0x00, 0x00, 0x00, 0x00, 0x00, 0x00, 0x00, 0x00, 0x00, 0x00,
  0x01, 0x00, 0x00, 0x00, 0x53, 0x3b, 0x88, 0x3d, 0x01, 0x00, 0x00, 0x00,
  0x18, 0xb3, 0x87, 0x41, 0x01, 0x00, 0x00, 0x00, 0x00, 0x00, 0x00, 0x00,
  0x12, 0xcc, 0xff, 0xff, 0x00, 0x00, 0x00, 0x02, 0x10, 0x00, 0x00, 0x00,
  0x06, 0x00, 0x00, 0x00, 0x10, 0x00, 0x00, 0x00, 0x1c, 0x00, 0x00, 0x00,
  0x01, 0x00, 0x00, 0x00, 0x08, 0x00, 0x00, 0x00, 0x0b, 0x00, 0x00, 0x00,
  0x43, 0x6f, 0x6e, 0x76, 0x32, 0x44, 0x5f, 0x62, 0x69, 0x61, 0x73, 0x00,
  0x04, 0xcc, 0xff, 0xff, 0x18, 0x00, 0x00, 0x00, 0x04, 0x00, 0x00, 0x00,
  0x01, 0x00, 0x00, 0x00, 0x00, 0x00, 0x00, 0x00, 0x00, 0x00, 0x00, 0x00,
  0x00, 0x00, 0x00, 0x00, 0x01, 0x00, 0x00, 0x00, 0x9e, 0xa7, 0xa1, 0x38,
  0x20, 0x00, 0x00, 0x00, 0x8f, 0xfe, 0xff, 0xff, 0xc5, 0xfe, 0xff, 0xff,
  0x30, 0x01, 0x00, 0x00, 0x67, 0xfd, 0xff, 0xff, 0xe0, 0xfe, 0xff, 0xff,
  0xc1, 0xff, 0xff, 0xff, 0xf1, 0xfe, 0xff, 0xff, 0x02, 0x00, 0x00, 0x00,
  0x8a, 0xcc, 0xff, 0xff, 0x00, 0x00, 0x00, 0x03, 0x10, 0x00, 0x00, 0x00,
  0x05, 0x00, 0x00, 0x00, 0x14, 0x00, 0x00, 0x00, 0x24, 0x00, 0x00, 0x00,
  0x02, 0x00, 0x00, 0x00, 0x01, 0x00, 0x00, 0x00, 0x03, 0x00, 0x00, 0x00,
  0x0e, 0x00, 0x00, 0x00, 0x6c, 0x61, 0x62, 0x65, 0x6c, 0x73, 0x5f, 0x73,
  0x6f, 0x66, 0x74, 0x6d, 0x61, 0x78, 0x00, 0x00, 0xec, 0xfb, 0xff, 0xff,
  0x2c, 0x00, 0x00, 0x00, 0x20, 0x00, 0x00, 0x00, 0x14, 0x00, 0x00, 0x00,
  0x04, 0x00, 0x00, 0x00, 0x01, 0x00, 0x00, 0x00, 0x00, 0x00, 0x00, 0x00,
  0x00, 0x00, 0x00, 0x00, 0x01, 0x00, 0x00, 0x00, 0x00, 0x00, 0x80, 0x3b,
  0x01, 0x00, 0x00, 0x00, 0x00, 0x00, 0x7f, 0x3f, 0x01, 0x00, 0x00, 0x00,
  0x00, 0x00, 0x00, 0x00, 0xfa, 0xcc, 0xff, 0xff, 0x00, 0x00, 0x00, 0x03,
  0x10, 0x00, 0x00, 0x00, 0x04, 0x00, 0x00, 0x00, 0x14, 0x00, 0x00, 0x00,
  0x1c, 0x00, 0x00, 0x00, 0x02, 0x00, 0x00, 0x00, 0x01, 0x00, 0x00, 0x00,
  0x03, 0x00, 0x00, 0x00, 0x05, 0x00, 0x00, 0x00, 0x61, 0x64, 0x64, 0x5f,
  0x31, 0x00, 0x00, 0x00, 0x54, 0xfc, 0xff, 0xff, 0x2c, 0x00, 0x00, 0x00,
  0x20, 0x00, 0x00, 0x00, 0x14, 0x00, 0x00, 0x00, 0x04, 0x00, 0x00, 0x00,
  0x01, 0x00, 0x00, 0x00, 0x0e, 0x00, 0x00, 0x00, 0x00, 0x00, 0x00, 0x00,
  0x01, 0x00, 0x00, 0x00, 0x32, 0x92, 0x0c, 0x3e, 0x01, 0x00, 0x00, 0x00,
  0xa1, 0x55, 0x04, 0x42, 0x01, 0x00, 0x00, 0x00, 0xd8, 0xff, 0xf5, 0xbf,
  0x62, 0xcd, 0xff, 0xff, 0x00, 0x00, 0x00, 0x03, 0x10, 0x00, 0x00, 0x00,
  0x03, 0x00, 0x00, 0x00, 0x1c, 0x00, 0x00, 0x00, 0x44, 0x00, 0x00, 0x00,
  0x04, 0x00, 0x00, 0x00, 0x01, 0x00, 0x00, 0x00, 0x0a, 0x00, 0x00, 0x00,
  0x08, 0x00, 0x00, 0x00, 0x08, 0x00, 0x00, 0x00, 0x25, 0x00, 0x00, 0x00,
  0x77, 0x65, 0x69, 0x67, 0x68, 0x74, 0x73, 0x5f, 0x71, 0x75, 0x61, 0x6e,
  0x74, 0x2f, 0x46, 0x61, 0x6b, 0x65, 0x51, 0x75, 0x61, 0x6e, 0x74, 0x57,
  0x69, 0x74, 0x68, 0x4d, 0x69, 0x6e, 0x4d, 0x61, 0x78, 0x56, 0x61, 0x72,
  0x73, 0x00, 0x00, 0x00, 0xe4, 0xfc, 0xff, 0xff, 0x30, 0x00, 0x00, 0x00,
  0x24, 0x00, 0x00, 0x00, 0x18, 0x00, 0x00, 0x00, 0x04, 0x00, 0x00, 0x00,
  0x01, 0x00, 0x00, 0x00, 0x7b, 0x00, 0x00, 0x00, 0x00, 0x00, 0x00, 0x00,
  0x00, 0x00, 0x00, 0x00, 0x01, 0x00, 0x00, 0x00, 0xc3, 0x2e, 0x46, 0x3a,
  0x01, 0x00, 0x00, 0x00, 0x1d, 0x67, 0xcc, 0x3d, 0x01, 0x00, 0x00, 0x00,
  0xae, 0xdd, 0xbc, 0xbd, 0x80, 0x02, 0x00, 0x00, 0x26, 0xc9, 0x51, 0x89,
  0x67, 0x6b, 0x08, 0x5e, 0x65, 0xc3, 0x93, 0x64, 0x8e, 0x77, 0x39, 0x71,
  0x37, 0x99, 0x54, 0xc5, 0xa5, 0x74, 0x71, 0x55, 0x66, 0xa0, 0x69, 0x67,
  0x87, 0x9e, 0x8a, 0x7b, 0x49, 0x5b, 0x54, 0xff, 0x8d, 0x91, 0xb9, 0x35,
  0x6a, 0x6a, 0x5f, 0x6a, 0x29, 0x85, 0x9f, 0x5b, 0x41, 0x1c, 0x72, 0xdf,
  0x95, 0x9d, 0xec, 0x28, 0x5b, 0x13, 0xb0, 0x87, 0x56, 0x8b, 0xb4, 0x34,
  0x49, 0xce, 0x65, 0x8f, 0x67, 0x86, 0x15, 0x67, 0x6f, 0xc4, 0x8b, 0x5c,
  0xa0, 0x8c, 0x4c, 0x8f, 0x58, 0x9f, 0x5d, 0xbd, 0xa0, 0xa1, 0x75, 0x6e,
  0x73, 0xad, 0x5f, 0x62, 0x94, 0xa8, 0x78, 0xae, 0x6f, 0x5e, 0x50, 0xd0,
  0x9e, 0xaa, 0xc4, 0x58, 0x8c, 0x65, 0x64, 0x5f, 0x3a, 0x87, 0xa8, 0x86,
  0x5f, 0x2f, 0x76, 0xc8, 0x91, 0xab, 0xdc, 0x3c, 0x87, 0x08, 0xb7, 0x7d,
  0x68, 0x92, 0xa5, 0x58, 0x36, 0xd1, 0x4c, 0x78, 0x59, 0x56, 0x31, 0x5d,
  0x6e, 0xab, 0x95, 0x62, 0x8b, 0x7e, 0x54, 0x9f, 0x5d, 0xa8, 0x49, 0xb3,
  0x98, 0x69, 0x6d, 0x82, 0x70, 0x9d, 0x6b, 0x5b, 0x83, 0xa2, 0x7f, 0xaf,
  0x80, 0x67, 0x4a, 0xc3, 0xa7, 0x9c, 0xbc, 0x58, 0x7d, 0x5d, 0x6a, 0x5d,
  0x4a, 0x7b, 0x8f, 0x80, 0x7a, 0x52, 0x6d, 0x9e, 0x95, 0x99, 0xc3, 0x52,
  0x9a, 0x1b, 0xbe, 0x73, 0x67, 0x76, 0x9f, 0x53, 0x5a, 0xc8, 0x53, 0x88,
  0x43, 0x19, 0x45, 0x5d, 0x65, 0xa6, 0x8e, 0x45, 0x75, 0x52, 0x4c, 0xa7,
  0x7a, 0xaf, 0x53, 0xb0, 0x95, 0x31, 0x72, 0x6b, 0x6a, 0x86, 0x6a, 0x5d,
  0x7f, 0x8c, 0x73, 0xd8, 0x96, 0x6f, 0x56, 0xb9, 0xc2, 0x61, 0xb0, 0x59,
  0x82, 0x6e, 0x6e, 0x6b, 0x56, 0x2c, 0x88, 0x99, 0x95, 0x67, 0x70, 0x9f,
  0xb3, 0x53, 0xc0, 0x5a, 0x9c, 0x2b, 0xbd, 0x6c, 0x69, 0x2b, 0x9d, 0x68,
  0x4c, 0xbb, 0x54, 0x7b, 0x43, 0x09, 0x55, 0x75, 0x67, 0x8d, 0x8f, 0x4c,
  0x6d, 0x1c, 0x4d, 0xce, 0x88, 0x98, 0x50, 0xaa, 0x84, 0x18, 0x75, 0x5d,
  0x69, 0x86, 0x65, 0x61, 0x7d, 0x60, 0x5e, 0xea, 0xaa, 0x6b, 0x51, 0xad,
  0xc7, 0x6c, 0x94, 0x3f, 0x77, 0x70, 0x78, 0x64, 0x6b, 0x35, 0x7a, 0xd1,
  0xa6, 0x6e, 0x61, 0x98, 0xc9, 0x5b, 0x95, 0x63, 0x8d, 0x4c, 0xc7, 0x75,
  0x7b, 0x26, 0x95, 0x88, 0x6e, 0xb4, 0x53, 0x71, 0x31, 0x44, 0x3e, 0x6d,
  0x58, 0x8a, 0x97, 0x47, 0x55, 0x2a, 0x45, 0x98, 0x98, 0x79, 0x44, 0x9e,
  0x82, 0x62, 0x55, 0x4b, 0x68, 0x65, 0x72, 0x62, 0x70, 0x82, 0x4f, 0xa9,
  0xc0, 0x51, 0x55, 0xa7, 0xd8, 0xab, 0x86, 0x2e, 0x60, 0x79, 0x7d, 0x7d,
  0x71, 0x4e, 0x6d, 0x8d, 0xb6, 0x76, 0x5f, 0x88, 0xde, 0x99, 0x75, 0x3a,
  0x80, 0x5f, 0xc3, 0x75, 0x79, 0x42, 0x8d, 0x72, 0x77, 0xaf, 0x51, 0x6d,
  0x29, 0xa5, 0x4d, 0x67, 0x5e, 0x80, 0x8c, 0x50, 0x45, 0x8d, 0x53, 0x9f,
  0xac, 0x5d, 0x51, 0x95, 0x83, 0xc2, 0x64, 0x3e, 0x5f, 0x56, 0x68, 0x6c,
  0x6a, 0x9c, 0x5d, 0xcb, 0xd0, 0x4a, 0x55, 0x8d, 0xd7, 0xe7, 0x61, 0x45,
  0x5d, 0x82, 0x77, 0x7a, 0x7e, 0x80, 0x6f, 0xab, 0xaf, 0x6e, 0x6d, 0x78,
  0xe7, 0xdb, 0x6b, 0x4d, 0x63, 0x76, 0xba, 0x6b, 0x83, 0x76, 0x7f, 0x97,
  0x8d, 0xae, 0x59, 0x61, 0x2d, 0xc3, 0x5c, 0x7b, 0x65, 0x6f, 0x86, 0x65,
  0x3f, 0xa0, 0x5f, 0x98, 0xc5, 0x60, 0x47, 0x68, 0x85, 0xea, 0x5f, 0x6e,
  0x60, 0x54, 0x6f, 0x76, 0x5c, 0x8c, 0x7b, 0xc4, 0xd1, 0x3f, 0x58, 0x88,
  0xd0, 0xd9, 0x71, 0x56, 0x5a, 0x85, 0x75, 0x96, 0x73, 0x5f, 0x76, 0xb1,
  0x9b, 0x5f, 0x57, 0x6e, 0xe3, 0xd5, 0x66, 0x53, 0x59, 0x8d, 0xb3, 0x66,
  0x74, 0x77, 0x7b, 0x97, 0xbd, 0x9d, 0x51, 0x41, 0x3b, 0xc6, 0x35, 0x4d,
  0x77, 0x5e, 0x87, 0x39, 0x4f, 0x7b, 0x40, 0x8a, 0xf9, 0x62, 0x4d, 0x53,
  0x77, 0xad, 0x53, 0x3d, 0x69, 0x3c, 0x68, 0x4d, 0x65, 0x64, 0x68, 0xcd,
  0xee, 0x46, 0x4e, 0x57, 0xc4, 0xae, 0x51, 0x42, 0x4e, 0x65, 0x72, 0x6b,
  0x6c, 0x4a, 0x38, 0xa3, 0xac, 0x4b, 0x6a, 0x5d, 0xc0, 0xba, 0x43, 0x3d,
  0x4e, 0x87, 0xa5, 0x4a, 0x71, 0x51, 0x53, 0x83, 0xd0, 0x7c, 0x58, 0x36,
  0x4b, 0x59, 0x20, 0x4b, 0x77, 0x49, 0x81, 0x01, 0x59, 0x4d, 0x2d, 0x7a,
  0xff, 0x48, 0x58, 0x3d, 0x7b, 0x4a, 0x46, 0x37, 0x54, 0x38, 0x63, 0x17,
  0x61, 0x6c, 0x35, 0xaf, 0xff, 0x38, 0x52, 0x47, 0x99, 0x82, 0x36, 0x33,
  0x3f, 0x4c, 0x74, 0x21, 0x4e, 0x63, 0x29, 0x98, 0xb4, 0x3f, 0x61, 0x40,
  0x8d, 0x8e, 0x45, 0x2f, 0x30, 0x60, 0xa3, 0x1c, 0x6a, 0x71, 0x19, 0x7d,
  0x7a, 0xd0, 0xff, 0xff, 0x00, 0x00, 0x00, 0x03, 0x10, 0x00, 0x00, 0x00,
  0x02, 0x00, 0x00, 0x00, 0x14, 0x00, 0x00, 0x00, 0x54, 0x00, 0x00, 0x00,
  0x02, 0x00, 0x00, 0x00, 0x03, 0x00, 0x00, 0x00, 0xa0, 0x0f, 0x00, 0x00,
  0x31, 0x00, 0x00, 0x00, 0x77, 0x65, 0x69, 0x67, 0x68, 0x74, 0x73, 0x5f,
  0x71, 0x75, 0x61, 0x6e, 0x74, 0x5f, 0x31, 0x2f, 0x46, 0x61, 0x6b, 0x65,
  0x51, 0x75, 0x61, 0x6e, 0x74, 0x57, 0x69, 0x74, 0x68, 0x4d, 0x69, 0x6e,
  0x4d, 0x61, 0x78, 0x56, 0x61, 0x72, 0x73, 0x2f, 0x74, 0x72, 0x61, 0x6e,
  0x73, 0x70, 0x6f, 0x73, 0x65, 0x00, 0x00, 0x00, 0x0c, 0x00, 0x14, 0x00,
  0x04, 0x00, 0x08, 0x00, 0x0c, 0x00, 0x10, 0x00, 0x0c, 0x00, 0x00, 0x00,
  0x2c, 0x00, 0x00, 0x00, 0x20, 0x00, 0x00, 0x00, 0x14, 0x00, 0x00, 0x00,
  0x04, 0x00, 0x00, 0x00, 0x01, 0x00, 0x00, 0x00, 0x7d, 0x00, 0x00, 0x00,
  0x00, 0x00, 0x00, 0x00, 0x01, 0x00, 0x00, 0x00, 0x94, 0x0c, 0xb0, 0x39,
  0x01, 0x00, 0x00, 0x00, 0xd1, 0xd1, 0x32, 0x3d, 0x01, 0x00, 0x00, 0x00,
  0x24, 0x87, 0x2a, 0xbd, 0xe0, 0x2e, 0x00, 0x00, 0xb3, 0x73, 0x50, 0x79,
  0xba, 0x43, 0x90, 0x89, 0xcd, 0x86, 0x7b, 0x45, 0x90, 0x4b, 0x65, 0x6a,
  0xd8, 0x80, 0x74, 0x69, 0x55, 0x1f, 0x57, 0x82, 0xdc, 0x45, 0x85, 0x60,
  0x90, 0x44, 0x64, 0x71, 0xce, 0x6b, 0x73, 0x71, 0x9d, 0x22, 0x8d, 0x6a,
  0xd0, 0x78, 0x88, 0x86, 0xd3, 0x5c, 0x92, 0x9f, 0xd0, 0x46, 0x6e, 0x7d,
  0x9c, 0x5a, 0x8d, 0x74, 0xd6, 0x84, 0xa3, 0x7c, 0xb5, 0x68, 0x62, 0x85,
  0xd2, 0x9b, 0x7e, 0xa0, 0x70, 0x43, 0xb1, 0x71, 0xdf, 0x94, 0x95, 0x46,
  0x8d, 0x6b, 0x9a, 0x5b, 0xc0, 0x7c, 0xa6, 0x98, 0xa7, 0x54, 0x4b, 0x59,
  0xe3, 0x91, 0x61, 0x65, 0x89, 0x2f, 0x84, 0x8a, 0xce, 0x64, 0x70, 0x7c,
  0xa8, 0x87, 0x9a, 0x5a, 0xe5, 0x59, 0x88, 0xad, 0xd4, 0x53, 0x70, 0x84,
  0xd8, 0x84, 0x74, 0x53, 0xb5, 0x6d, 0x90, 0x7d, 0xe1, 0x80, 0xb0, 0x96,
  0xd0, 0x65, 0x76, 0x58, 0xd3, 0x5a, 0x68, 0x60, 0x88, 0x4d, 0x9a, 0x61,
  0xde, 0x45, 0x9f, 0x83, 0x6f, 0x62, 0x8f, 0x87, 0xd0, 0x69, 0x98, 0x70,
  0x87, 0x84, 0xa7, 0x60, 0xe3, 0x7f, 0x8c, 0x68, 0x73, 0x74, 0x98, 0xac,
  0xac, 0x64, 0x8f, 0x86, 0xbb, 0x73, 0x7e, 0xbf, 0xb6, 0x99, 0x7d, 0xa0,
  0xbd, 0x72, 0x65, 0xa4, 0xa9, 0x84, 0x80, 0x68, 0x6e, 0x3d, 0x8c, 0x51,
  0x9b, 0x54, 0x79, 0x80, 0x72, 0x6e, 0x75, 0x4a, 0xb3, 0x71, 0x84, 0x95,
  0x8f, 0x30, 0x59, 0x74, 0xb3, 0x70, 0x8c, 0x9a, 0x95, 0x67, 0xa5, 0x73,
  0xb3, 0x68, 0x5b, 0x6e, 0x84, 0x37, 0xa3, 0x90, 0xc8, 0x67, 0x80, 0x76,
  0x7e, 0x6b, 0x60, 0x5c, 0x9e, 0x7d, 0x55, 0x89, 0x83, 0x90, 0x8d, 0x7a,
  0xb4, 0x88, 0x9c, 0x86, 0x93, 0x6f, 0x5c, 0x87, 0xae, 0x64, 0x77, 0x8e,
  0xa8, 0x68, 0x5c, 0x6c, 0xa7, 0x70, 0x4c, 0x89, 0xae, 0x7c, 0x91, 0x79,
  0xad, 0xaf, 0x76, 0x9c, 0xa9, 0x8f, 0x7d, 0x75, 0xb9, 0x83, 0x8a, 0x86,
  0xa8, 0x7c, 0x61, 0x73, 0xc7, 0x88, 0x86, 0x8d, 0xd2, 0x3f, 0x6c, 0x8a,
  0xb1, 0x85, 0x65, 0x71, 0xcc, 0x5c, 0x7f, 0x91, 0xbd, 0x93, 0xb4, 0x6d,
  0x87, 0x4d, 0x9c, 0x7d, 0xca, 0x4d, 0x6c, 0x71, 0x95, 0x67, 0x8c, 0x8b,
  0x99, 0x74, 0x67, 0x9a, 0xa0, 0x56, 0x65, 0x89, 0x81, 0x9e, 0x5a, 0x96,
  0x65, 0x89, 0x4f, 0x88, 0x2f, 0x99, 0x6f, 0x8d, 0xc9, 0x79, 0xa3, 0x6d,
  0x01, 0xa9, 0x82, 0x4d, 0x8d, 0x71, 0x75, 0xa1, 0x0f, 0xc4, 0x90, 0x7f,
  0x67, 0x64, 0x8c, 0x63, 0x1f, 0xac, 0x8d, 0x60, 0x86, 0x62, 0x9c, 0x84,
  0x39, 0xa5, 0x7c, 0x59, 0x8c, 0x76, 0x75, 0x7b, 0x39, 0x7b, 0x96, 0x41,
  0x96, 0xc3, 0x62, 0x7d, 0x37, 0x59, 0x50, 0x53, 0xa5, 0x87, 0x89, 0x40,
  0x51, 0x80, 0x4b, 0x44, 0xc4, 0x67, 0x99, 0x89, 0x61, 0x65, 0x9f, 0x73,
  0x76, 0x67, 0x51, 0x4e, 0x35, 0x82, 0x84, 0x6b, 0xa4, 0x7a, 0x78, 0x3e,
  0x8d, 0x7c, 0x85, 0x95, 0x9f, 0x81, 0x79, 0x6a, 0x7e, 0x63, 0x8a, 0x98,
  0x90, 0x5f, 0x68, 0x7a, 0x90, 0x65, 0xa9, 0x9a, 0x8a, 0x9d, 0xaf, 0x6c,
  0x3f, 0x88, 0xaf, 0x97, 0x6c, 0x99, 0xa8, 0x84, 0x70, 0x62, 0xa3, 0x94,
  0x87, 0x77, 0x64, 0x71, 0x6c, 0x8b, 0x9b, 0xa4, 0xb5, 0x70, 0x76, 0x92,
  0x30, 0x86, 0x50, 0x67, 0xa4, 0xa5, 0xa2, 0x8e, 0x51, 0x69, 0x63, 0x72,
  0x94, 0xa5, 0x78, 0x35, 0x4d, 0xaa, 0xb0, 0x75, 0x63, 0xa4, 0x86, 0x6a,
  0x6d, 0x9a, 0x71, 0xa8, 0x7c, 0xa3, 0x6c, 0x8b, 0x33, 0x77, 0x62, 0x89,
  0xa9, 0x8b, 0xa9, 0x9a, 0x3b, 0x8d, 0x88, 0x52, 0xa6, 0x8c, 0x50, 0x9f,
  0x6a, 0x76, 0x99, 0x71, 0x65, 0x84, 0x7c, 0x6f, 0x60, 0x92, 0x51, 0x50,
  0x55, 0x54, 0xb8, 0x7c, 0x5a, 0x6c, 0x4f, 0x32, 0x72, 0xb6, 0x8f, 0x95,
  0x6b, 0x4a, 0x6f, 0x3d, 0xa8, 0x7a, 0x83, 0x8d, 0x5d, 0x8a, 0x85, 0x57,
  0x85, 0xb6, 0x54, 0x6f, 0x86, 0x76, 0x8b, 0x7f, 0x75, 0x80, 0x78, 0xa9,
  0x8e, 0x5c, 0x82, 0x80, 0x69, 0x89, 0x7a, 0xa9, 0xac, 0x7e, 0x4a, 0x64,
  0xa3, 0x91, 0xa5, 0x92, 0x81, 0x7a, 0x8b, 0xa4, 0x74, 0x9b, 0x74, 0xa6,
  0xc7, 0x87, 0x73, 0xa4, 0xba, 0xa3, 0x7c, 0x65, 0x9e, 0x55, 0x6a, 0x9b,
  0x89, 0x98, 0x9f, 0x8a, 0x71, 0x77, 0x9c, 0x85, 0x64, 0x7d, 0x9a, 0x5c,
  0x5f, 0x88, 0x76, 0x94, 0xa3, 0xad, 0xad, 0x82, 0xae, 0x6a, 0x83, 0x92,
  0xa9, 0xbf, 0x7e, 0x91, 0x93, 0x49, 0x98, 0xa2, 0x90, 0x8c, 0x92, 0x78,
  0x7e, 0x8c, 0xab, 0x61, 0x7c, 0x5a, 0x62, 0x84, 0x89, 0x83, 0x69, 0x66,
  0x88, 0xae, 0x7c, 0x88, 0x8a, 0xa9, 0x54, 0x73, 0x58, 0x8d, 0x6f, 0x90,
  0x34, 0x95, 0x90, 0x54, 0x9c, 0x87, 0x81, 0xbc, 0x73, 0x7a, 0x6b, 0x84,
  0x8a, 0x6e, 0x62, 0xc2, 0x72, 0x78, 0x5f, 0x45, 0x76, 0x5d, 0x60, 0x89,
  0x73, 0x85, 0x5e, 0x4d, 0x93, 0x82, 0x4f, 0xb3, 0x8c, 0x8c, 0x7e, 0x4d,
  0x86, 0x7d, 0x66, 0xa5, 0x98, 0x51, 0x7b, 0x5b, 0x8a, 0xb4, 0xa4, 0xb8,
  0x71, 0x5e, 0x6d, 0x47, 0x7e, 0x6f, 0x89, 0x97, 0x53, 0x76, 0x95, 0x6f,
  0x76, 0x85, 0x87, 0xbd, 0x8d, 0x34, 0x45, 0x7b, 0x6e, 0x8b, 0x95, 0x74,
  0xa9, 0x93, 0x5b, 0x84, 0x79, 0x96, 0xb4, 0xaf, 0x97, 0x6e, 0x8c, 0x6a,
  0x7b, 0x8f, 0x89, 0x89, 0x78, 0x88, 0x76, 0x84, 0x72, 0x7d, 0x7f, 0x96,
  0x81, 0x70, 0x6e, 0x75, 0x7c, 0x71, 0x89, 0xbc, 0xbd, 0x81, 0x86, 0x94,
  0x6c, 0xb0, 0x81, 0xb1, 0x8d, 0x7a, 0x53, 0x7c, 0x8c, 0x8e, 0xad, 0xd7,
  0x92, 0x35, 0x61, 0x81, 0x8d, 0x82, 0xb2, 0x91, 0x85, 0x63, 0x93, 0x9e,
  0x7d, 0xa9, 0xb8, 0xcb, 0x62, 0x5c, 0x83, 0xaf, 0x9d, 0x96, 0x53, 0xb9,
  0x88, 0xb2, 0x7d, 0x83, 0x80, 0xb0, 0x76, 0x91, 0x91, 0x8d, 0x9f, 0x80,
  0x8a, 0xa3, 0x99, 0x73, 0x1b, 0x91, 0xa4, 0x63, 0xae, 0x71, 0x93, 0xc8,
  0x5a, 0x72, 0x68, 0x63, 0x8b, 0x96, 0x6b, 0xab, 0x7b, 0x8e, 0x86, 0x5f,
  0x59, 0xa4, 0x89, 0x98, 0x67, 0x7b, 0x9c, 0x55, 0x79, 0x94, 0x5a, 0x97,
  0x93, 0x5a, 0x8c, 0x65, 0x60, 0x77, 0x51, 0x99, 0x5f, 0x75, 0x83, 0x62,
  0x8d, 0xb1, 0x5c, 0x85, 0x74, 0x45, 0x58, 0x56, 0x8b, 0x7d, 0x70, 0xb6,
  0x5d, 0x56, 0x5b, 0x81, 0x9a, 0xa1, 0x8d, 0xa9, 0x7e, 0x5e, 0x73, 0x43,
  0x79, 0x93, 0x43, 0xc6, 0x52, 0x4b, 0x7f, 0x5f, 0x8b, 0x9e, 0x62, 0xaa,
  0x73, 0xa2, 0xa6, 0x70, 0x9e, 0x7d, 0xad, 0xb0, 0x94, 0x4e, 0x9d, 0x65,
  0x9f, 0xcd, 0x97, 0xb8, 0x8e, 0x69, 0x6d, 0x65, 0x71, 0x73, 0x8a, 0xdb,
  0x84, 0x72, 0x6c, 0x9d, 0x75, 0x9d, 0x5a, 0xb1, 0x83, 0x56, 0x70, 0xb4,
  0x96, 0x8a, 0xcb, 0xb5, 0x91, 0x5d, 0x4d, 0xa8, 0x6a, 0x96, 0x70, 0xcc,
  0x83, 0x6a, 0x6d, 0xa9, 0x93, 0xb6, 0x8a, 0xcb, 0x7c, 0x60, 0x81, 0x7e,
  0x94, 0x6d, 0x89, 0xb1, 0x94, 0xab, 0x60, 0x87, 0x68, 0xd6, 0x6c, 0xa5,
  0x9a, 0x7c, 0x71, 0x70, 0x86, 0xa2, 0x9b, 0xa5, 0x42, 0x68, 0x7b, 0x54,
  0x8f, 0x69, 0x7f, 0xa2, 0x37, 0x5e, 0x88, 0x72, 0x6f, 0x7e, 0x42, 0x9e,
  0x6b, 0xa6, 0x9d, 0x47, 0x7d, 0x7d, 0x59, 0x9b, 0x72, 0x50, 0xac, 0x7e,
  0x6a, 0x7f, 0x6d, 0xa0, 0x69, 0x53, 0x9f, 0x44, 0x6e, 0x7c, 0x39, 0x83,
  0x5d, 0x47, 0x8b, 0x64, 0x95, 0xc8, 0x66, 0x96, 0x6d, 0x6e, 0x6b, 0x4c,
  0x72, 0xb3, 0x62, 0xc7, 0x8a, 0x8f, 0x84, 0x6d, 0x8b, 0xcb, 0x7e, 0xaa,
  0x6c, 0x48, 0x81, 0x53, 0x7d, 0x9b, 0x99, 0x93, 0x68, 0x74, 0x54, 0x85,
  0x71, 0xa0, 0xa2, 0xc1, 0x87, 0xb7, 0x95, 0x6c, 0xc0, 0x6f, 0x7e, 0xab,
  0x9e, 0x95, 0x58, 0x81, 0x77, 0xb6, 0x77, 0xa4, 0x7b, 0x9c, 0x74, 0x9a,
  0x7e, 0xa0, 0x5e, 0xad, 0x7d, 0x80, 0x65, 0x7e, 0x75, 0x91, 0xc1, 0x94,
  0x92, 0x60, 0xa6, 0xab, 0xa0, 0xa6, 0xab, 0xcc, 0x89, 0x67, 0x6f, 0x99,
  0x7e, 0xa0, 0x7f, 0xa0, 0x7b, 0x3b, 0x56, 0x8f, 0x7a, 0xb4, 0x98, 0xb4,
  0x78, 0x84, 0x7b, 0x9b, 0x7b, 0x90, 0x82, 0xd0, 0x8f, 0xa4, 0x7c, 0x68,
  0x75, 0xbb, 0x5f, 0x9a, 0x9b, 0x92, 0x70, 0xa1, 0x58, 0xc7, 0x71, 0x8a,
  0x38, 0x89, 0x62, 0x69, 0x70, 0x79, 0x75, 0x82, 0x4a, 0x8f, 0x9d, 0x1d,
  0x67, 0x6c, 0x44, 0xb1, 0x4a, 0x9e, 0x71, 0x74, 0x73, 0x84, 0x61, 0xa0,
  0x5e, 0x47, 0x8f, 0x39, 0x83, 0x91, 0x92, 0xb6, 0x51, 0x7d, 0x4c, 0x4b,
  0x7f, 0x92, 0x7b, 0xa9, 0x7b, 0x46, 0x78, 0x35, 0x82, 0xa0, 0x8f, 0xad,
  0x45, 0x7f, 0x82, 0x3b, 0x98, 0x9e, 0x3d, 0x99, 0x64, 0x61, 0x6a, 0x55,
  0x70, 0x8a, 0x84, 0xa8, 0x56, 0x56, 0x34, 0x6e, 0x73, 0x94, 0x5c, 0x89,
  0x8a, 0x45, 0x74, 0x7e, 0xa6, 0x6e, 0x76, 0xbc, 0x8f, 0x81, 0x7e, 0x92,
  0x98, 0xc8, 0x63, 0x9a, 0x9e, 0x6e, 0x67, 0x4e, 0x9e, 0xbc, 0x70, 0xad,
  0x7c, 0x54, 0x90, 0x79, 0x72, 0x9f, 0x8b, 0x9c, 0x92, 0x51, 0x9b, 0x6f,
  0x4b, 0xa7, 0xb1, 0x8e, 0x77, 0x51, 0x77, 0xa7, 0x79, 0xa2, 0x8f, 0xb5,
  0xab, 0x32, 0x6e, 0x78, 0x82, 0x9c, 0xac, 0xb3, 0x99, 0x44, 0x7f, 0x98,
  0x77, 0x99, 0xbe, 0x93, 0x87, 0x77, 0x70, 0x58, 0x5f, 0xbf, 0xa4, 0xb6,
  0x6d, 0xb4, 0x85, 0x9b, 0x75, 0xcd, 0x7e, 0xc3, 0x62, 0x8b, 0x93, 0x6b,
  0x78, 0x95, 0xa8, 0xaf, 0x3c, 0x6b, 0x7d, 0x63, 0x6c, 0x7d, 0x85, 0xad,
  0x4a, 0x8a, 0xa1, 0x4e, 0x64, 0x82, 0x53, 0xa3, 0x42, 0x7f, 0x49, 0x75,
  0x66, 0x6f, 0x55, 0x9b, 0x6f, 0x33, 0x50, 0x66, 0x60, 0x75, 0x55, 0xc8,
  0x5d, 0x52, 0x65, 0x3b, 0x81, 0x95, 0x54, 0x8c, 0x38, 0x6f, 0x86, 0x4c,
  0x9b, 0x80, 0x8c, 0x7f, 0x64, 0x53, 0x95, 0x5a, 0x62, 0xb4, 0x62, 0x9d,
  0x40, 0x6b, 0x3c, 0x56, 0x69, 0x93, 0x9d, 0xa9, 0x6f, 0x73, 0x63, 0x4f,
  0x8a, 0x8d, 0x75, 0xb6, 0x88, 0x72, 0x8f, 0x61, 0xae, 0x79, 0x8e, 0xa9,
  0xab, 0x9e, 0xa8, 0x51, 0xab, 0xa5, 0x61, 0x96, 0x73, 0x64, 0x87, 0x79,
  0x74, 0x81, 0x81, 0x7b, 0xb4, 0x60, 0x67, 0x7d, 0x74, 0xb6, 0x89, 0x97,
  0x72, 0x6a, 0x6f, 0x84, 0xa4, 0xd0, 0xba, 0xad, 0xa0, 0x51, 0x5f, 0x88,
  0x6d, 0xa7, 0x7d, 0xb4, 0x6a, 0x3d, 0x64, 0x90, 0x67, 0xac, 0xba, 0xa7,
  0x6e, 0x36, 0x80, 0x95, 0x5f, 0xab, 0xb1, 0x9c, 0x75, 0x48, 0x7e, 0xa1,
  0x58, 0xb1, 0x66, 0xb1, 0x90, 0xac, 0x87, 0x75, 0x73, 0x9f, 0x72, 0x9f,
  0xad, 0x95, 0x62, 0x94, 0x72, 0xab, 0x46, 0xa9, 0x5e, 0xa1, 0x6c, 0x78,
  0x7f, 0x86, 0x70, 0xb4, 0x33, 0x97, 0x66, 0x3d, 0x71, 0x72, 0x51, 0xab,
  0x63, 0x6a, 0x72, 0x23, 0x96, 0x7f, 0x5b, 0xa8, 0x55, 0x2b, 0x73, 0x52,
  0x6e, 0x82, 0x72, 0x92, 0x5d, 0x67, 0x68, 0x12, 0x71, 0x90, 0x57, 0xa9,
  0x48, 0x9c, 0x8c, 0x49, 0x6d, 0xc5, 0x48, 0x9f, 0x80, 0x9d, 0x5f, 0x4f,
  0x74, 0x77, 0x3f, 0xbd, 0x77, 0x79, 0x73, 0x72, 0x56, 0x98, 0x79, 0xa7,
  0x6e, 0x46, 0x63, 0x68, 0x8c, 0x97, 0x60, 0xb3, 0x7f, 0x88, 0x7d, 0x7d,
  0x71, 0x9f, 0x66, 0x9d, 0xa4, 0x88, 0x7b, 0x6a, 0x84, 0xaf, 0xb4, 0xa3,
  0xbb, 0x84, 0x7c, 0x6d, 0x8c, 0x8f, 0x78, 0x94, 0x99, 0x80, 0xb8, 0x6e,
  0x77, 0x8f, 0x87, 0x8e, 0x7d, 0x44, 0x92, 0x5c, 0x8c, 0x87, 0x7e, 0xa3,
  0x94, 0x4e, 0x68, 0x7f, 0x73, 0xae, 0x6c, 0xa1, 0x6e, 0x52, 0x44, 0x71,
  0x99, 0xae, 0x84, 0xb6, 0x63, 0x3d, 0x7b, 0x7c, 0x7b, 0x9e, 0x98, 0xc2,
  0x67, 0x47, 0x42, 0x81, 0x7d, 0xa6, 0x79, 0xa9, 0x6a, 0xc0, 0x9a, 0x58,
  0x6d, 0xc3, 0x83, 0xb0, 0x62, 0xa5, 0x66, 0x64, 0xa0, 0x7a, 0x5a, 0x99,
  0x5c, 0x9a, 0x7d, 0x6b, 0x70, 0x6d, 0x83, 0x99, 0x2d, 0x93, 0xc0, 0x35,
  0x65, 0x42, 0x56, 0xac, 0x56, 0x56, 0x83, 0x41, 0x65, 0x5f, 0x60, 0x9f,
  0x38, 0x5d, 0x7d, 0x5b, 0x64, 0xab, 0x85, 0xac, 0x4b, 0x4e, 0x42, 0x49,
  0x6b, 0x8e, 0x1f, 0xaa, 0x59, 0x93, 0x52, 0x66, 0x5d, 0x96, 0x79, 0xb3,
  0x6a, 0x64, 0x45, 0x50, 0x8f, 0x83, 0x8b, 0xa2, 0x52, 0x70, 0x74, 0x3a,
  0x57, 0xaf, 0x75, 0x97, 0x83, 0x60, 0x6f, 0x73, 0x61, 0xb8, 0x81, 0x9a,
  0x6a, 0x7c, 0x6f, 0x66, 0x95, 0x9d, 0x96, 0x9c, 0x7d, 0x69, 0x6f, 0x82,
  0xc3, 0xc0, 0x69, 0xa2, 0x83, 0x6f, 0x94, 0x58, 0x64, 0xbb, 0x90, 0xb7,
  0x7b, 0x5a, 0xb1, 0x68, 0x6e, 0x9c, 0xbb, 0xb2, 0x78, 0x6a, 0x92, 0x7e,
  0x5c, 0x95, 0xa1, 0xc0, 0x9b, 0x78, 0x55, 0x7e, 0x6f, 0x99, 0x88, 0xad,
  0x77, 0x22, 0x7c, 0x9b, 0x71, 0xbf, 0x8c, 0x8a, 0x6e, 0x69, 0x8a, 0x4e,
  0x58, 0x86, 0x9e, 0x9e, 0x69, 0x46, 0x4b, 0x6b, 0x97, 0x8b, 0x67, 0xbc,
  0x69, 0xb4, 0xa0, 0x7a, 0x67, 0xc2, 0x89, 0xbf, 0x7a, 0x78, 0x4a, 0x5c,
  0x99, 0xc6, 0x7b, 0xa6, 0x34, 0xb2, 0xa8, 0x60, 0x76, 0x93, 0x88, 0xcb,
  0x37, 0x96, 0x72, 0x67, 0x3f, 0x59, 0x62, 0xc2, 0x3a, 0x80, 0x4c, 0x3c,
  0x8b, 0x6e, 0x51, 0xbe, 0x5c, 0x25, 0x4e, 0x39, 0x78, 0x7a, 0x41, 0xc2,
  0x54, 0x3c, 0x56, 0x32, 0x56, 0x6e, 0x7d, 0xc3, 0x63, 0x67, 0x4b, 0x36,
  0x79, 0x78, 0x6e, 0xb0, 0x4b, 0x80, 0x81, 0x42, 0x66, 0xb0, 0x70, 0xb3,
  0x6c, 0x83, 0x68, 0x53, 0x5d, 0x68, 0x81, 0x8d, 0x60, 0x50, 0x4e, 0x40,
  0x76, 0xa3, 0x8b, 0xb9, 0x90, 0x62, 0xa1, 0x79, 0x7d, 0xc2, 0x60, 0x96,
  0x7a, 0x69, 0x5b, 0x64, 0x87, 0x9e, 0x7c, 0x9f, 0x89, 0x6b, 0x5e, 0x93,
  0x80, 0x87, 0x5c, 0xa0, 0x7f, 0x5b, 0xa4, 0x81, 0x81, 0xa8, 0x69, 0xb1,
  0x79, 0x8f, 0x8e, 0x5a, 0x51, 0xa6, 0x6c, 0xac, 0x67, 0x6a, 0x5f, 0x78,
  0x8c, 0xa9, 0x60, 0xa4, 0x67, 0x35, 0x87, 0x45, 0x84, 0xa6, 0x78, 0xb3,
  0x7b, 0x3f, 0x66, 0x87, 0x52, 0xc5, 0xa7, 0xc5, 0x42, 0x32, 0x65, 0x53,
  0x82, 0x9b, 0x65, 0xb3, 0x6e, 0xb2, 0x64, 0x6c, 0x82, 0x9a, 0x89, 0x9d,
  0x62, 0xa0, 0x7e, 0x67, 0x62, 0xa7, 0x66, 0xaf, 0x1d, 0x94, 0x7c, 0x3a,
  0x80, 0x83, 0x78, 0xac, 0x33, 0x61, 0xd0, 0x58, 0x5c, 0x8b, 0x59, 0xae,
  0x67, 0x52, 0x98, 0x4a, 0x90, 0x80, 0x90, 0xb5, 0x44, 0x4d, 0x3b, 0x2b,
  0x79, 0x95, 0x64, 0x9d, 0x5b, 0x8a, 0x7b, 0x47, 0x66, 0x6a, 0x75, 0xac,
  0x66, 0x57, 0x8d, 0x40, 0x61, 0xa5, 0x6f, 0xb5, 0x4c, 0x89, 0x6a, 0x4d,
  0x63, 0x7e, 0x3b, 0xa3, 0x56, 0x3f, 0x3a, 0x54, 0x4a, 0xb2, 0x42, 0x9f,
  0x73, 0x7a, 0x70, 0x5b, 0x66, 0xa2, 0x7b, 0xb5, 0x6b, 0x59, 0x87, 0x4a,
  0x87, 0xa1, 0x77, 0xa2, 0x81, 0x84, 0x8a, 0x5d, 0x98, 0xa8, 0x9a, 0x98,
  0xa4, 0x73, 0x73, 0x51, 0x7c, 0xaf, 0x68, 0xb4, 0x61, 0x54, 0x7a, 0x8b,
  0x6b, 0x91, 0x80, 0x99, 0x70, 0x7a, 0x67, 0x74, 0x72, 0x94, 0x60, 0xca,
  0x8b, 0x55, 0x7f, 0x73, 0x70, 0x8e, 0x93, 0xb3, 0x51, 0x3b, 0x82, 0x62,
  0x51, 0x74, 0x9a, 0xd4, 0x4c, 0x85, 0x7f, 0x4a, 0x48, 0xbf, 0x7b, 0xc8,
  0x86, 0x78, 0x85, 0x6c, 0x4d, 0x8d, 0x94, 0xbb, 0x5f, 0xb2, 0x65, 0x43,
  0x71, 0xc2, 0xa0, 0xb3, 0x49, 0x87, 0x93, 0x4f, 0xa3, 0xa3, 0xa9, 0x94,
  0x56, 0x97, 0x80, 0x50, 0x62, 0x78, 0x5a, 0xa7, 0x51, 0x47, 0xc6, 0x51,
  0x63, 0x7c, 0x55, 0x90, 0x44, 0x78, 0x7f, 0x58, 0x92, 0x5a, 0x9a, 0xad,
  0x52, 0x43, 0x49, 0x7c, 0x62, 0x97, 0x51, 0xab, 0x5f, 0x74, 0x66, 0x32,
  0x7b, 0x9a, 0x2c, 0xbc, 0x6e, 0x84, 0x46, 0x2a, 0x34, 0x82, 0x62, 0xa2,
  0x7d, 0x78, 0x88, 0x47, 0x6a, 0xa2, 0x6c, 0xae, 0x52, 0x72, 0x62, 0x38,
  0x40, 0xa5, 0x75, 0xad, 0x4f, 0x4b, 0x59, 0x58, 0x5c, 0xa6, 0x86, 0x95,
  0x97, 0x5a, 0x83, 0x77, 0x68, 0x8e, 0x92, 0x98, 0x8d, 0xa2, 0x80, 0x91,
  0x78, 0xb8, 0x5e, 0xa3, 0xab, 0x92, 0x64, 0x6a, 0xa4, 0x9e, 0x6a, 0x9c,
  0xb7, 0x5c, 0x86, 0x57, 0x77, 0x72, 0xaa, 0xaf, 0x50, 0x67, 0x95, 0x85,
  0x6b, 0x87, 0x62, 0xb4, 0x84, 0x74, 0x75, 0x78, 0x98, 0x93, 0x79, 0x99,
  0x85, 0x7d, 0x53, 0x57, 0x60, 0xc3, 0x8b, 0xb5, 0x45, 0x43, 0x8c, 0x8b,
  0x74, 0x75, 0x7a, 0xc6, 0x61, 0x75, 0x4b, 0x6c, 0x70, 0x86, 0x7c, 0xbf,
  0x50, 0x90, 0x92, 0x40, 0x53, 0x9a, 0x59, 0xc2, 0x8d, 0x86, 0x81, 0x5a,
  0x86, 0x84, 0x61, 0xa9, 0x48, 0x9a, 0x83, 0x63, 0x8b, 0x7d, 0x6f, 0xa6,
  0x19, 0x74, 0x9e, 0x81, 0x76, 0x60, 0x74, 0xac, 0x5d, 0x76, 0x78, 0x3b,
  0x6e, 0x96, 0x7a, 0xa0, 0x46, 0x37, 0x42, 0x34, 0x60, 0x9f, 0x2f, 0xc1,
  0x62, 0x57, 0x68, 0x53, 0x6c, 0x89, 0x58, 0xaf, 0x67, 0x75, 0x5c, 0x46,
  0x72, 0xa4, 0x66, 0x83, 0x86, 0x8c, 0x62, 0x34, 0x6b, 0xbf, 0x40, 0xb8,
  0x85, 0x75, 0x4a, 0x68, 0x4a, 0x92, 0x59, 0xa2, 0x7b, 0x5c, 0x4c, 0x56,
  0x53, 0xa5, 0x50, 0xa4, 0x87, 0x4a, 0x87, 0x74, 0x76, 0x94, 0x7b, 0xa3,
  0x99, 0x59, 0x71, 0x9a, 0x6b, 0xc7, 0x6c, 0x95, 0x91, 0xa4, 0x63, 0x59,
  0x5c, 0x9e, 0x61, 0x8a, 0xa1, 0x9c, 0x7b, 0x95, 0x39, 0x9f, 0xb3, 0xae,
  0xaf, 0x57, 0x4b, 0x6b, 0x56, 0xca, 0x96, 0x9d, 0x84, 0x56, 0x8e, 0x7c,
  0x62, 0xb8, 0xa8, 0xa2, 0x7f, 0x5b, 0x5e, 0x79, 0x71, 0x88, 0xa6, 0xc1,
  0x6f, 0x62, 0x87, 0x56, 0x4b, 0x9d, 0x75, 0xaf, 0x6d, 0x57, 0x76, 0x35,
  0x70, 0x84, 0x63, 0xb9, 0x83, 0x7c, 0x64, 0x80, 0x4b, 0x78, 0x5c, 0xb9,
  0x5d, 0xa5, 0x68, 0x78, 0x90, 0x93, 0x69, 0x9f, 0x39, 0x7c, 0x5b, 0x51,
  0x80, 0x87, 0x7b, 0xa9, 0x47, 0x9c, 0x8d, 0x48, 0x71, 0x64, 0x81, 0x95,
  0x69, 0x79, 0x5b, 0x48, 0x84, 0xaf, 0x59, 0xb6, 0x6a, 0x36, 0x6d, 0x31,
  0x74, 0x7f, 0x37, 0xbd, 0x7d, 0x9a, 0x70, 0x61, 0x87, 0x9e, 0x4e, 0xb3,
  0x85, 0x8d, 0x68, 0x37, 0x54, 0xb6, 0x6f, 0xc2, 0x95, 0x90, 0x29, 0x21,
  0x76, 0xcc, 0x31, 0xad, 0x7b, 0x76, 0x4f, 0x56, 0x8c, 0x7e, 0x67, 0x89,
  0x6f, 0x46, 0x41, 0x58, 0x5e, 0x7e, 0x5e, 0xaa, 0x84, 0x88, 0x85, 0x83,
  0x3f, 0xa7, 0x71, 0x98, 0xa7, 0x8a, 0x75, 0x57, 0x73, 0xdc, 0x52, 0xa4,
  0xaa, 0xa6, 0xa7, 0x63, 0x6f, 0xa2, 0x6d, 0x95, 0xc4, 0x6d, 0xb3, 0x7b,
  0x5c, 0xa5, 0x78, 0x9f, 0x76, 0x92, 0x5d, 0x55, 0x4d, 0x95, 0x64, 0x86,
  0xa5, 0x6c, 0x62, 0x9d, 0x95, 0xc1, 0x68, 0x87, 0x9a, 0x3f, 0xa3, 0x99,
  0x58, 0xa3, 0x77, 0x9e, 0x81, 0x63, 0x36, 0x68, 0x8a, 0xa9, 0x91, 0xae,
  0xbd, 0x4e, 0x7e, 0x77, 0x67, 0xae, 0x6f, 0x96, 0x81, 0x77, 0x96, 0x59,
  0x60, 0x98, 0x68, 0xc4, 0xa1, 0x7b, 0x74, 0x54, 0x85, 0x9e, 0x64, 0xbb,
  0x4e, 0x6e, 0x66, 0x65, 0x88, 0x7e, 0x54, 0xc4, 0x3e, 0x70, 0x96, 0x49,
  0x7f, 0x78, 0x8c, 0xb3, 0x68, 0x83, 0x51, 0x6a, 0xbb, 0x83, 0x66, 0x9d,
  0x49, 0x33, 0x58, 0x4e, 0x98, 0x89, 0x4c, 0xaa, 0xa5, 0x6d, 0x2c, 0x4e,
  0x64, 0x9d, 0x41, 0xb0, 0xa1, 0x8a, 0x69, 0x60, 0x6e, 0x75, 0x41, 0xae,
  0xa0, 0x59, 0x4f, 0x52, 0x81, 0xa1, 0x62, 0xa1, 0x9d, 0x8c, 0x28, 0x4f,
  0x6e, 0xb9, 0x57, 0xaa, 0x88, 0x28, 0x70, 0x72, 0x85, 0xcf, 0x5e, 0xa1,
  0xaf, 0x39, 0x89, 0x55, 0x42, 0x89, 0x55, 0x90, 0xcd, 0x8d, 0x6b, 0x3d,
  0x95, 0xbc, 0x74, 0xb2, 0xb2, 0x5e, 0xa6, 0x40, 0x5b, 0xca, 0x4d, 0x79,
  0xc4, 0x5f, 0x6a, 0x96, 0x51, 0x95, 0x7d, 0x95, 0xaa, 0x6f, 0x8a, 0x74,
  0x5f, 0x98, 0x75, 0x9f, 0x9a, 0x23, 0x76, 0x66, 0x89, 0xbb, 0xa0, 0x9d,
  0x8b, 0x37, 0x88, 0x90, 0x61, 0xa4, 0x73, 0xb1, 0x9b, 0x4e, 0x6b, 0x8d,
  0x4d, 0x8b, 0xa7, 0xab, 0xab, 0x72, 0x65, 0x47, 0x56, 0xaa, 0x68, 0xb0,
  0x8d, 0x71, 0x71, 0x3b, 0x8b, 0xaa, 0x85, 0xa8, 0x69, 0x64, 0x5e, 0x3a,
  0x8b, 0xd5, 0x7c, 0x99, 0x4d, 0xa7, 0x88, 0x77, 0xbe, 0x8f, 0x50, 0xaf,
  0x5e, 0x5b, 0x91, 0x65, 0x9e, 0x87, 0x58, 0xbb, 0x6a, 0x6a, 0x45, 0x6c,
  0x85, 0x67, 0x4b, 0xa1, 0x4b, 0x2f, 0x67, 0x6d, 0x84, 0x95, 0x31, 0xb8,
  0x92, 0x66, 0x3d, 0x1e, 0x7e, 0x9e, 0x48, 0x97, 0x77, 0x6a, 0x87, 0x60,
  0x80, 0x92, 0x4d, 0xbb, 0x96, 0x7c, 0x54, 0x2d, 0x6a, 0xac, 0x48, 0x82,
  0x89, 0x72, 0x74, 0x5f, 0x86, 0xb5, 0x50, 0x94, 0x7a, 0x79, 0x40, 0x85,
  0x7f, 0x92, 0x43, 0xa6, 0xa4, 0x6b, 0x8b, 0x6f, 0x72, 0xb8, 0x95, 0x9e,
  0xc5, 0x7f, 0x70, 0x73, 0x7a, 0xb3, 0x90, 0x95, 0xde, 0x3a, 0x7c, 0x65,
  0x66, 0x91, 0x55, 0xab, 0xa0, 0x7d, 0x9c, 0x85, 0x69, 0xa4, 0x94, 0x7e,
  0x95, 0x84, 0x75, 0x7b, 0x71, 0x9e, 0x69, 0xa6, 0xa7, 0x3d, 0x86, 0x74,
  0x6f, 0xb6, 0x8b, 0xb0, 0x8a, 0x36, 0x72, 0x8a, 0x84, 0xa3, 0xa1, 0xab,
  0x97, 0x4f, 0x61, 0x57, 0x5b, 0xa6, 0x45, 0xaf, 0xb2, 0x24, 0x75, 0x62,
  0x6e, 0xab, 0x68, 0xae, 0x94, 0x7a, 0x93, 0x43, 0x4e, 0xa4, 0x7a, 0xa2,
  0x76, 0x6f, 0x67, 0x4b, 0x85, 0x90, 0x8e, 0xb0, 0x50, 0x77, 0x7f, 0x53,
  0x9f, 0x78, 0x49, 0xc8, 0x74, 0x8a, 0xb6, 0x7d, 0x99, 0x62, 0x95, 0xb3,
  0x6d, 0x65, 0x4f, 0x2a, 0xb9, 0x6c, 0x72, 0xa2, 0x8e, 0x31, 0x59, 0x4e,
  0x6e, 0x8d, 0x1d, 0xb4, 0x9e, 0x6e, 0x48, 0x36, 0x80, 0x93, 0x57, 0x9e,
  0xb5, 0x6d, 0x75, 0x5d, 0x6d, 0x87, 0x49, 0x9c, 0x97, 0x41, 0x5a, 0x62,
  0x60, 0x87, 0x42, 0x9b, 0x8a, 0x85, 0x6f, 0x4a, 0x53, 0xae, 0x72, 0x97,
  0x7e, 0x64, 0x33, 0x6b, 0x5b, 0x87, 0x72, 0xb4, 0x8c, 0x70, 0x6d, 0x78,
  0x62, 0xb9, 0x3f, 0x92, 0xc6, 0x92, 0x89, 0x69, 0x7e, 0xae, 0x8e, 0x7d,
  0xfe, 0x4c, 0x81, 0x7c, 0x8f, 0x92, 0x90, 0x89, 0xe0, 0x7e, 0x68, 0x5f,
  0x55, 0x8e, 0x7f, 0x74, 0xe6, 0x73, 0x6c, 0x70, 0x74, 0x81, 0x5c, 0x91,
  0x86, 0x7e, 0x47, 0x77, 0x7a, 0x7b, 0xa6, 0xb5, 0xb6, 0x7e, 0x66, 0x8c,
  0x88, 0xb4, 0x78, 0x97, 0xa6, 0x4e, 0x48, 0x6d, 0x72, 0xb3, 0x88, 0x8e,
  0x9f, 0x61, 0x5c, 0x5a, 0x6b, 0x8c, 0x51, 0xae, 0x6c, 0x72, 0x5d, 0x56,
  0x4e, 0xab, 0xa6, 0xa2, 0xa7, 0x79, 0x6b, 0x45, 0x89, 0xb4, 0x84, 0x8c,
  0x6c, 0xb1, 0xbc, 0x42, 0xb9, 0x79, 0x82, 0xc5, 0x5c, 0x5f, 0xa7, 0x70,
  0xbd, 0x66, 0x60, 0xba, 0x60, 0x65, 0x46, 0x39, 0x8e, 0x8d, 0x78, 0x9c,
  0x83, 0x3d, 0x31, 0x64, 0x7b, 0xa7, 0x4d, 0x99, 0x77, 0x40, 0x4f, 0x2a,
  0x9c, 0x97, 0x37, 0xaa, 0x86, 0x65, 0x38, 0x39, 0x79, 0x8b, 0x60, 0xb3,
  0x66, 0x79, 0x2f, 0x4b, 0x67, 0xab, 0x3e, 0x99, 0x81, 0x5c, 0x75, 0x8d,
  0x73, 0x95, 0x81, 0xaf, 0x95, 0x50, 0x46, 0x71, 0x85, 0xa3, 0x44, 0xab,
  0xbe, 0x72, 0x87, 0x59, 0x5f, 0x99, 0x8b, 0xa2, 0xb2, 0x70, 0x6a, 0x91,
  0x7d, 0xa1, 0x69, 0x97, 0xa7, 0x6b, 0x57, 0x5d, 0x79, 0x9a, 0x89, 0x6a,
  0xe2, 0x6f, 0x78, 0x68, 0x51, 0x86, 0x82, 0x97, 0xa9, 0x55, 0x81, 0x65,
  0x49, 0xab, 0xa0, 0x99, 0xb6, 0x6a, 0x64, 0x7e, 0x73, 0x8f, 0x98, 0x96,
  0xd0, 0x5d, 0x52, 0x57, 0x56, 0xa3, 0x9e, 0x87, 0x9c, 0x44, 0x47, 0x3d,
  0x9e, 0xbe, 0x81, 0x9a, 0x87, 0x6a, 0x4f, 0x77, 0x80, 0x99, 0x91, 0x87,
  0xa2, 0x95, 0x4f, 0x5c, 0x91, 0xbf, 0x8d, 0x94, 0xa2, 0x7a, 0x5c, 0x39,
  0x39, 0xac, 0x9a, 0x7b, 0x66, 0x71, 0x7a, 0x6c, 0xaf, 0x72, 0x7d, 0xc2,
  0x6e, 0x86, 0x9a, 0x5b, 0x8e, 0x7c, 0x7e, 0xa9, 0x48, 0x75, 0x4d, 0x4d,
  0xb7, 0x9c, 0x6c, 0xb7, 0x4c, 0x1b, 0x58, 0x8f, 0xab, 0x71, 0x41, 0xd0,
  0x80, 0x75, 0x3b, 0x5e, 0x9d, 0x54, 0x53, 0xc9, 0x55, 0x4c, 0x4c, 0x7f,
  0x74, 0xa6, 0x53, 0xa4, 0x55, 0x87, 0x63, 0x74, 0x69, 0xba, 0x34, 0x9d,
  0x4b, 0x7b, 0x32, 0x40, 0xaf, 0xa2, 0x9e, 0x9f, 0x89, 0x6d, 0x4f, 0x8a,
  0x84, 0xc7, 0x76, 0x82, 0x88, 0x6c, 0x68, 0x66, 0x89, 0x7e, 0x98, 0x94,
  0xb0, 0xbd, 0x51, 0x8a, 0x76, 0xa3, 0xab, 0xa0, 0xcb, 0x87, 0x5b, 0x6b,
  0x76, 0xb6, 0x8b, 0x9e, 0x9d, 0x6b, 0x7a, 0x8f, 0x75, 0x7b, 0x9e, 0x87,
  0xcb, 0x7f, 0x72, 0xa0, 0x84, 0x95, 0xba, 0x93, 0x9b, 0x85, 0x3a, 0xa9,
  0x75, 0xa2, 0x98, 0x8b, 0x9f, 0x3b, 0x69, 0x72, 0x70, 0xa2, 0x9e, 0x95,
  0xba, 0x5a, 0x73, 0x94, 0x96, 0x86, 0x97, 0x9a, 0xb1, 0x53, 0x90, 0x39,
  0x8d, 0xc0, 0x78, 0xa8, 0xb5, 0x85, 0x8f, 0x47, 0x8a, 0xae, 0x90, 0x92,
  0x98, 0x91, 0x91, 0x60, 0x9e, 0xa6, 0x44, 0x78, 0x51, 0xa1, 0x7c, 0x29,
  0xab, 0xb8, 0x8a, 0xde, 0x37, 0x66, 0x9b, 0x52, 0x96, 0x63, 0x85, 0xb1,
  0x25, 0x7e, 0x5b, 0x48, 0xa2, 0x68, 0x5d, 0xb7, 0x3a, 0x51, 0x29, 0x43,
  0xa6, 0x7b, 0x78, 0xc0, 0x44, 0x6a, 0x32, 0x5a, 0xa8, 0x5a, 0x59, 0xa3,
  0x56, 0x61, 0x4b, 0x3f, 0x51, 0x6b, 0x89, 0xac, 0x36, 0x6a, 0x44, 0x6f,
  0x6e, 0x50, 0x72, 0xa7, 0x56, 0x49, 0x5a, 0x79, 0x8a, 0x96, 0x52, 0xb6,
  0x50, 0x60, 0x61, 0x81, 0x7b, 0xa3, 0x8d, 0xaa, 0x79, 0x92, 0x81, 0xae,
  0x95, 0x92, 0x93, 0x9d, 0xb2, 0x93, 0x78, 0x85, 0x4e, 0x8c, 0x8c, 0x74,
  0x6f, 0x76, 0x61, 0xa1, 0x81, 0xaa, 0x8f, 0x8b, 0x94, 0x55, 0x94, 0xaa,
  0x59, 0x87, 0x93, 0x8c, 0xa5, 0x97, 0x54, 0x88, 0x62, 0xb4, 0xa4, 0x7b,
  0xb0, 0x72, 0x6d, 0x73, 0x7e, 0x93, 0x98, 0x82, 0x80, 0x3a, 0x54, 0x6a,
  0x80, 0xa3, 0x66, 0x7b, 0x9f, 0x5f, 0x3c, 0x7e, 0x5d, 0xbe, 0x7e, 0x97,
  0xbb, 0x6e, 0x50, 0x6f, 0x54, 0xa8, 0x7b, 0x9a, 0x75, 0x79, 0x65, 0x54,
  0x99, 0xa8, 0x78, 0x90, 0x9f, 0xa4, 0xa4, 0x66, 0x8f, 0x8c, 0x78, 0x82,
  0x60, 0x73, 0x9e, 0x4a, 0x87, 0x9b, 0xc6, 0xf7, 0x2c, 0x62, 0xa5, 0x62,
  0x89, 0x4d, 0x88, 0xc9, 0x1b, 0x9a, 0x54, 0x2b, 0xd0, 0x5f, 0x8d, 0xb7,
  0x2d, 0x31, 0x69, 0x49, 0xa3, 0x6c, 0x5d, 0xc4, 0x48, 0xa1, 0x3d, 0x38,
  0x97, 0x7b, 0x78, 0xc3, 0x24, 0x3d, 0x6f, 0x58, 0x66, 0x67, 0x47, 0xbb,
  0x55, 0x5b, 0x3a, 0x58, 0x66, 0x67, 0x3b, 0xc8, 0x40, 0x83, 0x4d, 0x61,
  0x90, 0x94, 0x6a, 0xb6, 0x80, 0x71, 0x5f, 0x8f, 0x81, 0x75, 0x6d, 0x9d,
  0x4e, 0x87, 0x65, 0x78, 0x9b, 0x7e, 0xa7, 0x91, 0x57, 0x7d, 0x6a, 0x99,
  0xa0, 0x8d, 0x68, 0x81, 0x8c, 0x62, 0x71, 0x70, 0x8c, 0xa1, 0x90, 0x97,
  0x6c, 0x4e, 0x62, 0x6b, 0x9b, 0x7b, 0xaa, 0x96, 0x8c, 0x90, 0x44, 0x99,
  0x5d, 0x67, 0xaa, 0x7f, 0x78, 0x51, 0x71, 0xa7, 0x9a, 0xae, 0x95, 0xa5,
  0xa3, 0x67, 0x64, 0x54, 0x73, 0xb2, 0x8e, 0x99, 0xb1, 0x65, 0x5e, 0xa5,
  0x83, 0xbb, 0x9c, 0x99, 0xbe, 0x53, 0x64, 0x57, 0xc3, 0x9f, 0xa3, 0xa1,
  0x59, 0x85, 0x73, 0x5e, 0xa0, 0xa1, 0x6c, 0x86, 0x9b, 0xa8, 0x7f, 0x87,
  0x95, 0x87, 0xa1, 0xa1, 0x74, 0x90, 0x6c, 0x6e, 0xc6, 0x94, 0xba, 0xea,
  0x7a, 0x58, 0xde, 0x5a, 0xa6, 0x8d, 0xaf, 0xd2, 0x95, 0x63, 0x68, 0x31,
  0x96, 0x64, 0xaa, 0xc4, 0x7f, 0x64, 0x8f, 0x81, 0xac, 0x74, 0x58, 0xc2,
  0x5c, 0xac, 0x43, 0x7d, 0x91, 0xa5, 0x6b, 0xb5, 0xa0, 0x79, 0x52, 0x79,
  0xaa, 0x77, 0x6a, 0xb5, 0xb1, 0x72, 0x84, 0x7b, 0x75, 0x83, 0x65, 0xb9,
  0x68, 0x46, 0x65, 0x3d, 0x82, 0x89, 0x36, 0x9b, 0x92, 0x60, 0x78, 0x59,
  0x8b, 0x7d, 0x6b, 0xb5, 0x6a, 0x5c, 0x91, 0xa3, 0x81, 0xac, 0x6e, 0x85,
  0x8d, 0x84, 0x7f, 0x9d, 0xa5, 0x81, 0x60, 0x75, 0x57, 0x85, 0xab, 0x71,
  0xa6, 0x76, 0x7d, 0x71, 0x80, 0x70, 0x90, 0x83, 0x75, 0x7d, 0x69, 0x9c,
  0x5e, 0x7b, 0x78, 0x80, 0x68, 0x87, 0x90, 0x9b, 0x91, 0x4d, 0x7a, 0x73,
  0xd7, 0x6b, 0x87, 0x7b, 0x7c, 0x55, 0x7f, 0x79, 0x9f, 0x97, 0x8c, 0x84,
  0x6c, 0x4e, 0x88, 0x80, 0x9b, 0xc6, 0x99, 0x87, 0x69, 0x6c, 0x67, 0x6d,
  0xd8, 0x98, 0x66, 0x92, 0xa6, 0x9b, 0x7e, 0x75, 0xba, 0xaf, 0x95, 0x9a,
  0x95, 0xb6, 0xb3, 0xa7, 0x76, 0x75, 0x5d, 0x64, 0x6b, 0x78, 0x8f, 0x63,
  0x9f, 0x79, 0xc9, 0xfa, 0x5a, 0x92, 0xc0, 0x56, 0x9e, 0x37, 0xab, 0xcc,
  0x84, 0x8c, 0x61, 0x55, 0xae, 0x39, 0xdc, 0xc1, 0x84, 0x67, 0x70, 0x7f,
  0xd1, 0x79, 0x8b, 0xe6, 0x83, 0x92, 0x43, 0x74, 0xb0, 0x58, 0xc4, 0xdc,
  0xb3, 0x75, 0x54, 0x79, 0xa9, 0x58, 0x84, 0xd6, 0x48, 0x6f, 0x6b, 0x9b,
  0x77, 0x3b, 0x81, 0xcf, 0x6b, 0x81, 0x4d, 0x8b, 0x85, 0x69, 0x94, 0x97,
  0x6c, 0x51, 0x72, 0x90, 0x8b, 0x95, 0x77, 0x96, 0x87, 0x69, 0xae, 0x91,
  0xa0, 0x88, 0xb6, 0x8f, 0xa3, 0x73, 0x70, 0x9e, 0x7b, 0x97, 0x86, 0x7c,
  0x56, 0x84, 0x7f, 0xae, 0xbc, 0x6e, 0xa3, 0x69, 0x61, 0x81, 0xa9, 0x85,
  0x9b, 0x6c, 0x7e, 0x78, 0xa7, 0x54, 0x41, 0x80, 0x9b, 0x80, 0xc1, 0x77,
  0x55, 0x37, 0x8c, 0x66, 0x94, 0x4d, 0x9f, 0x80, 0x86, 0x53, 0x6e, 0xad,
  0xb9, 0x71, 0xca, 0x95, 0x5b, 0x6a, 0x91, 0xa9, 0x99, 0x65, 0xa0, 0x98,
  0x81, 0x70, 0x6d, 0x94, 0x65, 0x56, 0xb4, 0xaa, 0x7c, 0xb8, 0x6f, 0x80,
  0xc9, 0xaa, 0xa8, 0x8d, 0x72, 0xb0, 0x7b, 0xa1, 0x7a, 0x79, 0x92, 0xa4,
  0xaf, 0x6f, 0x6d, 0x95, 0xb9, 0xbd, 0x64, 0x9a, 0xdd, 0x7d, 0x75, 0x82,
  0xac, 0xa1, 0x65, 0x83, 0xe3, 0x85, 0x51, 0x99, 0x71, 0x8a, 0x96, 0x95,
  0xe1, 0x49, 0xb4, 0x49, 0x91, 0x7e, 0x6d, 0x8b, 0xd4, 0x62, 0xa4, 0xb5,
  0x42, 0x9c, 0x7b, 0x8c, 0xe2, 0x84, 0x79, 0x5e, 0x71, 0x9f, 0x68, 0x7c,
  0xc9, 0x9d, 0x99, 0x90, 0x7f, 0xb9, 0x56, 0x85, 0xd5, 0x5b, 0x78, 0x4f,
  0x7b, 0x7b, 0x51, 0x64, 0xdc, 0x77, 0x8b, 0x84, 0x59, 0x71, 0x83, 0x8c,
  0xdc, 0x6c, 0x5d, 0x7b, 0x8b, 0xa0, 0xa9, 0x70, 0xbb, 0x73, 0x64, 0x73,
  0x6c, 0x9b, 0x64, 0xa4, 0xdb, 0x8e, 0x7d, 0x67, 0x72, 0x7e, 0x9b, 0x6f,
  0xce, 0x6b, 0x9e, 0x75, 0x7c, 0x9e, 0x76, 0x6a, 0xde, 0x7c, 0x70, 0x7c,
  0x61, 0xa4, 0x8f, 0x74, 0xd1, 0x9a, 0x69, 0x95, 0x61, 0xb1, 0x56, 0x62,
  0xd6, 0x68, 0x7b, 0xa4, 0x87, 0xaa, 0x55, 0x73, 0xc9, 0x95, 0x60, 0x7b,
  0x5b, 0x88, 0x60, 0x77, 0xd3, 0x91, 0x72, 0x82, 0x5d, 0x8a, 0x68, 0x74,
  0xc8, 0x57, 0x90, 0x98, 0x69, 0xaf, 0x69, 0x75, 0xd9, 0x6c, 0x80, 0x6a,
  0x85, 0x92, 0x7e, 0x9d, 0xbd, 0x75, 0x9c, 0x9b, 0xc2, 0x94, 0x84, 0xba,
  0xc7, 0x91, 0x86, 0xa2, 0xca, 0x8c, 0xa0, 0x99, 0xb7, 0x9a, 0x4a, 0x5b,
  0x9f, 0x84, 0x72, 0x97, 0xb4, 0x55, 0x43, 0x73, 0x6a, 0x81, 0x86, 0xa4,
  0xc2, 0x71, 0x70, 0x92, 0x5d, 0x96, 0x5d, 0xa2, 0xbc, 0x71, 0x75, 0x90,
  0x7d, 0x9a, 0x88, 0x8e, 0xc2, 0x86, 0x95, 0x89, 0x55, 0x68, 0x7d, 0x94,
  0xc6, 0x8d, 0x75, 0x79, 0x84, 0x8e, 0x8b, 0x81, 0x9a, 0x81, 0x83, 0x74,
  0x94, 0x72, 0x76, 0x88, 0xb0, 0x7a, 0x6a, 0x75, 0x75, 0x8c, 0x75, 0x9c,
  0xab, 0x46, 0x6f, 0xb2, 0x5f, 0x67, 0x81, 0xa9, 0xa7, 0x8b, 0x81, 0x6f,
  0x69, 0x7e, 0x77, 0x98, 0xaa, 0x80, 0x4a, 0x82, 0x5e, 0x8f, 0x60, 0x82,
  0xb4, 0x94, 0x7f, 0x73, 0x3a, 0x7a, 0x95, 0x82, 0xb4, 0x84, 0x97, 0x88,
  0x63, 0x83, 0x91, 0x8c, 0xad, 0x8d, 0x69, 0x96, 0x69, 0x83, 0x7b, 0xa8,
  0xab, 0x74, 0x6b, 0x6f, 0x64, 0x89, 0x70, 0x96, 0xbe, 0xae, 0x64, 0x61,
  0x77, 0x7e, 0x44, 0x7f, 0x89, 0x53, 0x6e, 0x7f, 0x98, 0x88, 0x96, 0x78,
  0x74, 0x6c, 0x82, 0x8e, 0x68, 0x87, 0x5f, 0x7c, 0xcd, 0x77, 0x8f, 0xa6,
  0xcc, 0x79, 0xa8, 0x92, 0xd0, 0x69, 0x86, 0x9d, 0x9d, 0xaf, 0x7f, 0xd3,
  0x8a, 0x87, 0x88, 0x98, 0x95, 0x8d, 0xa0, 0x80, 0x9b, 0x86, 0x85, 0x91,
  0x79, 0x6d, 0x7b, 0x76, 0x89, 0x76, 0x71, 0x67, 0x9d, 0x55, 0x9f, 0x90,
  0xb1, 0x79, 0x7d, 0x8f, 0x85, 0x4a, 0x73, 0x61, 0x80, 0x71, 0x62, 0x74,
  0x71, 0x62, 0x64, 0x6f, 0x8b, 0x66, 0x89, 0x97, 0xa2, 0x42, 0x7c, 0x72,
  0x9c, 0x7c, 0x77, 0x71, 0x6d, 0x78, 0x6c, 0x7a, 0xa6, 0x5b, 0x80, 0xb4,
  0x92, 0x86, 0xaa, 0x75, 0x8e, 0xac, 0x79, 0x7a, 0x94, 0x72, 0x8e, 0xa3,
  0x8f, 0x73, 0x80, 0x6d, 0x8e, 0x4a, 0x91, 0x84, 0x88, 0x9d, 0x78, 0x66,
  0x78, 0x54, 0x61, 0x83, 0x8f, 0x56, 0x73, 0xa5, 0x2c, 0x41, 0xa8, 0x94,
  0x75, 0xaa, 0x4e, 0x62, 0x45, 0x6d, 0xa7, 0xb3, 0x80, 0x6b, 0xb6, 0x5a,
  0x52, 0x61, 0x52, 0x59, 0x74, 0x77, 0x74, 0x6b, 0x68, 0x4d, 0x6a, 0xa6,
  0x6f, 0x9e, 0x82, 0x5a, 0x90, 0x6d, 0x6d, 0xa7, 0x87, 0x53, 0x5f, 0x57,
  0x61, 0x98, 0x56, 0x95, 0x83, 0x8f, 0x7f, 0x49, 0x64, 0x8c, 0x9e, 0x81,
  0xe3, 0x8e, 0x86, 0x8a, 0xba, 0xa4, 0xbb, 0x80, 0xcf, 0x7a, 0x92, 0x88,
  0xc7, 0x8b, 0x8f, 0x81, 0x88, 0x93, 0x69, 0x99, 0x80, 0x7d, 0xac, 0xbd,
  0x9f, 0x85, 0xa0, 0x8c, 0x82, 0x6b, 0x86, 0xab, 0x7d, 0x84, 0x80, 0x75,
  0x77, 0x5b, 0x64, 0xb2, 0x7a, 0x98, 0x7b, 0x6c, 0x95, 0x55, 0xb1, 0x7f,
  0x81, 0x52, 0x52, 0x88, 0x6c, 0x4e, 0x54, 0x8c, 0x8b, 0x6d, 0x9d, 0x8e,
  0x7a, 0x62, 0x60, 0x67, 0x8e, 0x6d, 0xa8, 0x97, 0x82, 0x7d, 0x7f, 0x83,
  0x91, 0x71, 0x96, 0x89, 0x90, 0x60, 0x82, 0xad, 0x87, 0x5f, 0x88, 0x6d,
  0x83, 0x80, 0x92, 0x7f, 0x84, 0xae, 0xac, 0x87, 0x72, 0x7b, 0x90, 0x83,
  0x86, 0x77, 0x5a, 0x9e, 0x72, 0x59, 0xb4, 0x93, 0x7f, 0xba, 0x9e, 0xa0,
  0x44, 0x4b, 0x83, 0x7d, 0x6d, 0x93, 0x73, 0x8e, 0x66, 0x76, 0x7c, 0xab,
  0x62, 0xa6, 0x8f, 0x82, 0x66, 0x3d, 0x8a, 0x94, 0x78, 0x5b, 0x67, 0x63,
  0x8b, 0x5d, 0x8e, 0x75, 0x6d, 0x90, 0x7b, 0x69, 0x6b, 0x47, 0x9b, 0x49,
  0x71, 0x79, 0xa5, 0x5a, 0x8c, 0x7d, 0x6a, 0x5e, 0x75, 0xa0, 0x4d, 0x60,
  0x66, 0x6f, 0x64, 0x5d, 0xeb, 0x71, 0x5c, 0x80, 0xba, 0xc1, 0xa7, 0x8c,
  0xc3, 0x8a, 0x9e, 0xae, 0xa9, 0xa1, 0x84, 0x88, 0xc8, 0x9b, 0xa1, 0x7b,
  0x8d, 0x76, 0xa1, 0xdb, 0xc2, 0x64, 0x85, 0x85, 0xb2, 0x6d, 0x71, 0xb0,
  0xa7, 0x79, 0x76, 0x86, 0x83, 0x3a, 0x7f, 0x7a, 0x7c, 0x79, 0x78, 0x7f,
  0x74, 0x46, 0x82, 0x8b, 0x81, 0x63, 0x8b, 0x74, 0x9a, 0x64, 0x86, 0x73,
  0x9e, 0xba, 0x74, 0x81, 0xb8, 0x44, 0x78, 0x72, 0x70, 0x9c, 0xac, 0x89,
  0x72, 0x77, 0xa4, 0x4f, 0xab, 0xa3, 0x53, 0xbd, 0x78, 0x6c, 0xab, 0x81,
  0xa7, 0x5a, 0x89, 0xa5, 0x78, 0x55, 0x95, 0x9d, 0x7e, 0x6e, 0x51, 0x87,
  0x74, 0x64, 0x9d, 0x91, 0x96, 0x68, 0x72, 0xb6, 0x4f, 0x69, 0x8f, 0x73,
  0x91, 0x81, 0x8a, 0x9b, 0x5c, 0x26, 0xa9, 0x72, 0x7b, 0x5e, 0x91, 0x91,
  0x56, 0x53, 0x9c, 0x81, 0x68, 0x81, 0x8f, 0x85, 0x63, 0x47, 0x71, 0x56,
  0x65, 0x9b, 0x83, 0x86, 0x84, 0x5c, 0x6c, 0x76, 0x51, 0x74, 0xb3, 0x9f,
  0x79, 0x5c, 0x61, 0x78, 0x6c, 0x65, 0x8e, 0x54, 0x7d, 0x91, 0x91, 0x7e,
  0x92, 0x88, 0x9a, 0x89, 0x67, 0x7c, 0x56, 0x44, 0xb5, 0xa7, 0x6d, 0x6d,
  0xb8, 0xba, 0xa9, 0xa0, 0xb8, 0x8b, 0x8f, 0x72, 0xb8, 0x9f, 0x7b, 0x93,
  0xd1, 0x83, 0x71, 0x73, 0xb4, 0x88, 0x8f, 0xc8, 0xb6, 0x7e, 0x9f, 0x8b,
  0x8e, 0x7b, 0x54, 0xab, 0x94, 0x86, 0x84, 0x89, 0x7b, 0x6d, 0x6b, 0x83,
  0x88, 0x86, 0x97, 0x8a, 0x86, 0x62, 0x4b, 0x75, 0x6c, 0x7b, 0x9e, 0x77,
  0x62, 0x5b, 0x8f, 0x6d, 0x70, 0x83, 0x95, 0x79, 0x84, 0x7c, 0xc4, 0x73,
  0x7e, 0x98, 0x8c, 0x7d, 0xb2, 0x7b, 0x8c, 0x64, 0xae, 0x75, 0x76, 0x72,
  0xc8, 0x6e, 0x78, 0x90, 0x93, 0x74, 0x93, 0x95, 0xa7, 0x4e, 0x8a, 0xaa,
  0x9e, 0x88, 0x9f, 0x88, 0x9c, 0x83, 0xc1, 0xa2, 0x93, 0x8d, 0x44, 0x9c,
  0x6d, 0x48, 0x95, 0xad, 0x80, 0x7f, 0x5a, 0x9c, 0x49, 0x43, 0xaf, 0x83,
  0x74, 0x7d, 0x79, 0x8a, 0x73, 0x38, 0x96, 0x95, 0x7b, 0x7d, 0x82, 0x8d,
  0xa3, 0x35, 0x5b, 0x6c, 0x8b, 0x74, 0x90, 0x89, 0x58, 0x4e, 0x89, 0x69,
  0x89, 0x8d, 0x78, 0x6f, 0x94, 0x40, 0x88, 0x4f, 0x65, 0x48, 0x60, 0x7d,
  0x83, 0x66, 0x80, 0x5a, 0x92, 0x75, 0x9f, 0x66, 0x73, 0x74, 0x5a, 0x64,
  0xd3, 0x97, 0x55, 0x8d, 0xb7, 0xb3, 0x9c, 0x94, 0xaf, 0xa5, 0x9b, 0x81,
  0x9e, 0x63, 0x86, 0x87, 0xb0, 0x97, 0x77, 0x68, 0x99, 0x82, 0x93, 0xb1,
  0x95, 0x7c, 0xa5, 0x89, 0xa3, 0x52, 0x5f, 0x97, 0x74, 0x77, 0x7d, 0x8e,
  0x8f, 0x5b, 0x75, 0x8b, 0x6e, 0x8f, 0x57, 0x90, 0x79, 0x83, 0x64, 0x8b,
  0x9d, 0x68, 0x78, 0x75, 0x7a, 0x6e, 0x77, 0xa7, 0x6a, 0x59, 0x59, 0xa2,
  0xc4, 0x52, 0xac, 0x8d, 0x73, 0xa2, 0x75, 0x8e, 0xcb, 0x63, 0x99, 0x67,
  0x97, 0xaa, 0x7f, 0x77, 0xb6, 0x58, 0xa7, 0xa0, 0xb1, 0x8d, 0x5e, 0x81,
  0x95, 0x3c, 0x87, 0x9a, 0x6f, 0x8e, 0x63, 0x94, 0x98, 0x6f, 0xa2, 0xae,
  0x96, 0x72, 0x6d, 0xaa, 0x7e, 0x5e, 0x92, 0x98, 0x82, 0x6b, 0x8f, 0xae,
  0x56, 0x66, 0x8c, 0xa9, 0x8f, 0x82, 0xa0, 0x9b, 0x64, 0x63, 0x7d, 0x8e,
  0x69, 0x7a, 0xb6, 0x6c, 0x88, 0x61, 0xaa, 0x76, 0x68, 0x71, 0xaa, 0x9b,
  0x8f, 0x40, 0x88, 0x7e, 0x7a, 0x91, 0x87, 0x99, 0x7f, 0x3e, 0x80, 0x73,
  0x85, 0x6c, 0x9e, 0x62, 0xa1, 0x4e, 0x69, 0x61, 0x92, 0x83, 0x5f, 0x65,
  0x60, 0x6f, 0xa7, 0x6c, 0xc4, 0x96, 0x8f, 0x77, 0x95, 0xb5, 0x7e, 0x72,
  0xca, 0x83, 0xb3, 0x7b, 0xa1, 0x81, 0x78, 0xae, 0xa0, 0xc0, 0xc6, 0x7b,
  0xb8, 0x7e, 0x91, 0x92, 0x83, 0xa4, 0xb1, 0x72, 0xd8, 0x73, 0x77, 0xab,
  0x94, 0x92, 0xc2, 0x78, 0x76, 0x4f, 0x6d, 0xa4, 0x85, 0x69, 0x74, 0x97,
  0x68, 0x67, 0x6a, 0xaf, 0x6b, 0x8e, 0x83, 0x7a, 0x8a, 0x53, 0x92, 0x9d,
  0x71, 0x92, 0x5a, 0x97, 0xbb, 0x3d, 0xd7, 0xb8, 0x60, 0xad, 0x94, 0x73,
  0xb6, 0x4e, 0xb0, 0x83, 0x99, 0xa3, 0x66, 0x9a, 0x9c, 0x59, 0xc1, 0xa6,
  0xb3, 0xa0, 0x87, 0x7a, 0xb1, 0x75, 0x6b, 0x9b, 0x97, 0x8c, 0x82, 0x89,
  0x6e, 0x92, 0x86, 0xcd, 0x9d, 0x6b, 0x92, 0x9d, 0x62, 0x4a, 0x7e, 0xa5,
  0x84, 0x4e, 0x9e, 0xa0, 0x5c, 0x4b, 0xae, 0xa6, 0x81, 0x5d, 0x6c, 0x9d,
  0x8a, 0x3e, 0xa9, 0xaf, 0xa6, 0x68, 0xaa, 0x7d, 0x97, 0x43, 0x7b, 0x93,
  0x93, 0x65, 0x7c, 0x9b, 0x6b, 0x35, 0x96, 0x75, 0x5f, 0x84, 0x6d, 0x5c,
  0x62, 0x75, 0xad, 0x8a, 0x74, 0x6c, 0x9c, 0x74, 0x77, 0x66, 0x76, 0x83,
  0x71, 0x7b, 0x96, 0x7e, 0x77, 0x5b, 0x66, 0x7d, 0xce, 0x78, 0xa3, 0x81,
  0x98, 0xbb, 0x8e, 0x9e, 0xc7, 0x88, 0x6b, 0x77, 0xaf, 0x95, 0x88, 0x85,
  0x99, 0xb1, 0xa4, 0x74, 0xa2, 0x86, 0x79, 0x86, 0xa2, 0xa3, 0xa4, 0x86,
  0xa1, 0x6a, 0x74, 0xac, 0x85, 0xa3, 0xb3, 0x93, 0x88, 0x52, 0x91, 0x8b,
  0x7b, 0x68, 0xab, 0x7e, 0x3f, 0x5a, 0x56, 0x7d, 0x5f, 0x5d, 0x76, 0x81,
  0x7c, 0x58, 0x71, 0x9c, 0x45, 0x7f, 0x5c, 0x60, 0xea, 0x4c, 0xe5, 0xb1,
  0x6a, 0x9b, 0x7c, 0x9d, 0xd0, 0x57, 0xdf, 0x99, 0xa7, 0x7f, 0xa0, 0x77,
  0xa1, 0x5a, 0x9c, 0x9d, 0xa8, 0x90, 0x88, 0x66, 0x9f, 0x6f, 0x61, 0xa3,
  0x71, 0x9f, 0x7c, 0xa0, 0x62, 0x56, 0x7d, 0x9e, 0x9c, 0x82, 0x70, 0x9a,
  0x81, 0x53, 0x94, 0xb4, 0x96, 0x3f, 0x7f, 0x97, 0x84, 0x6c, 0x89, 0xae,
  0xa4, 0x8e, 0x90, 0x82, 0x64, 0x61, 0xa2, 0xc3, 0x70, 0x57, 0x64, 0x76,
  0x8d, 0x68, 0x8e, 0x9c, 0x8a, 0x74, 0x7b, 0x9f, 0x6f, 0x4c, 0xa1, 0x92,
  0x72, 0x8f, 0x81, 0x9d, 0x90, 0x64, 0x93, 0x83, 0x73, 0x57, 0x80, 0x67,
  0x92, 0x5b, 0x80, 0x88, 0x70, 0x7e, 0xa9, 0x90, 0x76, 0x5e, 0x5f, 0x8e,
  0xd0, 0x81, 0x75, 0x82, 0xa8, 0x9d, 0x8c, 0xa8, 0xcc, 0xc3, 0x9a, 0x8b,
  0xb5, 0x8d, 0x6b, 0x9e, 0xd0, 0xbe, 0xaa, 0x7e, 0xa0, 0x71, 0xa0, 0x8b,
  0xb1, 0xd7, 0xa3, 0x97, 0xb1, 0x4f, 0x95, 0x80, 0xab, 0xb7, 0x89, 0x8d,
  0x70, 0x5f, 0x68, 0xa6, 0x7f, 0xa8, 0x73, 0x96, 0x52, 0x68, 0x59, 0x93,
  0x7b, 0x8b, 0x44, 0x8b, 0x81, 0x5b, 0x90, 0xc0, 0x6e, 0xa5, 0x64, 0x96,
  0xad, 0x44, 0xbf, 0xb7, 0x78, 0xa7, 0x7a, 0x79, 0xbc, 0x4f, 0xd4, 0xac,
  0x8e, 0xa1, 0x7f, 0x6c, 0x90, 0x48, 0x86, 0x94, 0xbf, 0x9e, 0x76, 0x72,
  0x7d, 0x3f, 0x7b, 0xa7, 0x95, 0x9a, 0x75, 0x8e, 0x76, 0x63, 0x7d, 0xab,
  0x81, 0x6d, 0x66, 0x98, 0x76, 0x4d, 0xa0, 0xaa, 0x7c, 0x62, 0x8f, 0xa1,
  0x74, 0x44, 0x9f, 0xb6, 0x92, 0x91, 0x8e, 0x91, 0x86, 0x46, 0x90, 0xac,
  0x72, 0x8b, 0x7a, 0x90, 0x80, 0x66, 0xb1, 0xb6, 0x88, 0x66, 0x5a, 0x7d,
  0x58, 0x51, 0x97, 0xb4, 0x6c, 0x80, 0x36, 0xa0, 0x8d, 0x5b, 0x8f, 0x92,
  0x7e, 0x70, 0x81, 0x7f, 0x9b, 0x56, 0x9f, 0x8f, 0x6f, 0x89, 0x78, 0x7d,
  0x57, 0x63, 0x8c, 0x8f, 0xda, 0x86, 0x68, 0x6e, 0x9f, 0xa2, 0x86, 0x83,
  0xa6, 0xaf, 0x9a, 0x68, 0xa5, 0x5e, 0x5f, 0x94, 0xb0, 0x99, 0xc4, 0x8f,
  0xc0, 0x83, 0x7c, 0x82, 0xb6, 0xe4, 0xce, 0x88, 0xa0, 0x43, 0xac, 0x88,
  0x8d, 0xa8, 0x7c, 0x7e, 0x81, 0x47, 0x46, 0x91, 0x82, 0x88, 0xa4, 0x99,
  0x5f, 0x50, 0x59, 0xa8, 0x87, 0x64, 0x56, 0x8d, 0x87, 0x36, 0x8d, 0xb2,
  0x71, 0x94, 0x6f, 0x7f, 0xf0, 0x57, 0xc6, 0xa1, 0x97, 0x94, 0x85, 0xb4,
  0xc3, 0x34, 0xd1, 0x98, 0x7c, 0xa9, 0x7b, 0x98, 0xa9, 0x6a, 0x85, 0x7c,
  0x93, 0x87, 0x5d, 0x91, 0xa1, 0x5c, 0x7f, 0xa5, 0x71, 0x8c, 0x74, 0x70,
  0x57, 0x2f, 0x82, 0xc1, 0x86, 0x8c, 0x93, 0x7c, 0x64, 0x66, 0xb3, 0xc2,
  0x75, 0x71, 0x9c, 0x66, 0x4d, 0x74, 0xab, 0xcd, 0x85, 0x90, 0x69, 0xa3,
  0xa1, 0x5e, 0xb2, 0xb8, 0x6d, 0x8d, 0x92, 0x83, 0x88, 0x60, 0x92, 0xa5,
  0x63, 0x94, 0x7f, 0x83, 0x87, 0x55, 0xa7, 0x8b, 0x6d, 0x55, 0x56, 0xb3,
  0x8e, 0x78, 0xbd, 0xa1, 0x8f, 0x6a, 0x64, 0x7d, 0x6f, 0x73, 0x7b, 0xab,
  0x96, 0x69, 0x74, 0xa0, 0x67, 0x7c, 0x45, 0x97, 0xb6, 0x6b, 0x74, 0x66,
  0xa3, 0x90, 0xa1, 0x9d, 0xae, 0xce, 0x81, 0x66, 0x9b, 0x8e, 0x7f, 0xbf,
  0xac, 0xd2, 0x88, 0x93, 0xba, 0x60, 0x85, 0x9d, 0xa8, 0xe0, 0xab, 0x9f,
  0x93, 0x47, 0xad, 0x96, 0xa5, 0x8a, 0xa9, 0x9d, 0x64, 0x3a, 0x64, 0xb9,
  0x88, 0x74, 0x96, 0x6f, 0x68, 0x50, 0x57, 0xab, 0x66, 0x9f, 0x6d, 0x74,
  0x7a, 0x3d, 0xb9, 0xbc, 0x76, 0x94, 0x4d, 0x7a, 0xfc, 0x2f, 0xc3, 0x96,
  0x8c, 0xa9, 0x7e, 0x93, 0xc9, 0x52, 0xd3, 0xb5, 0xbe, 0x9d, 0x72, 0x92,
  0x89, 0x61, 0xa0, 0x94, 0x94, 0xcc, 0xa3, 0x83, 0xa1, 0x5f, 0x7e, 0xab,
  0x73, 0x9e, 0x90, 0x9a, 0x7b, 0x34, 0x73, 0xb0, 0x7f, 0x70, 0x7b, 0x8e,
  0x73, 0x42, 0x92, 0xbe, 0x96, 0x3e, 0x78, 0x71, 0x5a, 0x58, 0xdf, 0xb1,
  0x7c, 0x87, 0x79, 0x84, 0x70, 0x59, 0xae, 0xab, 0x76, 0x84, 0x79, 0x86,
  0x68, 0x4b, 0xbc, 0xb3, 0x6f, 0x99, 0x6a, 0x89, 0x5a, 0x7c, 0x95, 0xc1,
  0x62, 0x86, 0x6a, 0x72, 0x7a, 0x4d, 0xa0, 0xaa, 0x6c, 0x74, 0xa4, 0x9f,
  0x86, 0x56, 0x68, 0x98, 0x89, 0x83, 0x7d, 0xa9, 0x8e, 0x65, 0x9d, 0xa0,
  0xb7, 0x9e, 0x4e, 0x8a, 0xa6, 0x79, 0x8d, 0x8b, 0xc3, 0x9d, 0x96, 0x88,
  0x9c, 0x86, 0x6b, 0xa4, 0xb2, 0xb9, 0xd6, 0x78, 0xad, 0x61, 0x7a, 0x8f,
  0xa6, 0xdf, 0x77, 0x82, 0xbd, 0x70, 0xb4, 0x5d, 0x99, 0x8d, 0xa6, 0x83,
  0x74, 0x59, 0x6d, 0x8c, 0x9d, 0xb1, 0x7a, 0x90, 0x41, 0x48, 0x7e, 0xb2,
  0x6d, 0x7f, 0x77, 0x58, 0x98, 0x4b, 0xad, 0xb8, 0x60, 0xa6, 0x5f, 0x7a,
  0xec, 0x45, 0xb2, 0xb6, 0x97, 0xa9, 0xa0, 0xae, 0xc8, 0x42, 0xdb, 0xb2,
  0xa6, 0xad, 0x98, 0x7f, 0x99, 0x4f, 0x91, 0xa4, 0x94, 0x87, 0xb5, 0x67,
  0x7d, 0x37, 0x7c, 0x9c, 0x89, 0x8a, 0x88, 0x97, 0x64, 0x47, 0x86, 0xae,
  0x75, 0x80, 0x80, 0x8f, 0x69, 0x53, 0x82, 0xad, 0x78, 0x3f, 0x75, 0x7d,
  0x89, 0x3e, 0x92, 0xcc, 0x7a, 0x58, 0x80, 0x91, 0x5a, 0x5d, 0xca, 0xa6,
  0x70, 0x9a, 0x6e, 0x9d, 0x62, 0x61, 0xb8, 0xe4, 0x75, 0xa4, 0x82, 0xb0,
  0x7b, 0x3a, 0xba, 0xcd, 0x68, 0x83, 0x63, 0x84, 0x6a, 0x53, 0xb9, 0xbd,
  0x79, 0x6b, 0x60, 0x9c, 0x7f, 0x75, 0x88, 0xb8, 0x77, 0x75, 0x81, 0x93,
  0xb1, 0x82, 0x96, 0x89, 0xa9, 0x87, 0x6d, 0x69, 0x93, 0x8a, 0x7d, 0x8a,
  0xc9, 0xc0, 0x87, 0x6f, 0x9f, 0x71, 0x64, 0x8f, 0xbd, 0xb6, 0xcd, 0x74,
  0xc3, 0x40, 0x75, 0x80, 0xaf, 0xc9, 0x7b, 0x9a, 0xa4, 0x4a, 0xbf, 0x71,
  0xad, 0xa5, 0x98, 0x7c, 0x8e, 0x5f, 0x73, 0x98, 0x9b, 0xc0, 0xb6, 0x8f,
  0x4a, 0x77, 0x5c, 0x9a, 0x71, 0x81, 0x4e, 0x7c, 0x8f, 0x4b, 0xa7, 0xbc,
  0x7d, 0xab, 0x99, 0x69, 0xe8, 0x56, 0xdd, 0xaf, 0x74, 0xa5, 0x91, 0x8d,
  0xd7, 0x30, 0xc8, 0x8c, 0x9c, 0xa4, 0xa4, 0x97, 0xc3, 0x38, 0xab, 0x96,
  0x71, 0xb4, 0xbb, 0x8c, 0x84, 0x56, 0x85, 0xa5, 0x86, 0x82, 0x5e, 0x82,
  0x9c, 0x66, 0x76, 0xb3, 0xad, 0x5e, 0x6d, 0x78, 0x80, 0x4a, 0xad, 0xbb,
  0x5f, 0x3e, 0x91, 0x8e, 0x7d, 0x3f, 0xa8, 0xb4, 0x7c, 0x70, 0x82, 0x85,
  0x6f, 0x37, 0xb0, 0x9e, 0x76, 0x84, 0x90, 0x98, 0x79, 0x62, 0xcf, 0xc1,
  0x6b, 0x72, 0x58, 0x78, 0x84, 0x35, 0x9f, 0xd0, 0x83, 0x64, 0x5d, 0xa4,
  0x95, 0x58, 0x9b, 0xca, 0x81, 0x88, 0x95, 0x8d, 0x93, 0x59, 0x8c, 0xbf,
  0x7f, 0x7c, 0x73, 0x8f, 0x8a, 0x51, 0x7c, 0xb2, 0xc7, 0x97, 0x63, 0x5d,
  0xb2, 0x9b, 0x8c, 0x9a, 0xb2, 0xa8, 0x80, 0x83, 0x96, 0x72, 0x70, 0x96,
  0xd4, 0xdd, 0x87, 0x8a, 0x88, 0x5f, 0xa3, 0x63, 0xb2, 0xba, 0x89, 0x6e,
  0xaf, 0x49, 0x93, 0x6f, 0xb2, 0x79, 0x81, 0x72, 0x66, 0x45, 0x77, 0x82,
  0x7d, 0x96, 0x86, 0x8a, 0x72, 0x57, 0x63, 0x74, 0x7c, 0x79, 0x73, 0x8e,
  0x73, 0x57, 0x73, 0xcb, 0x8a, 0xa3, 0x62, 0x74, 0xdd, 0x5e, 0xc2, 0xa6,
  0x99, 0x9f, 0x9c, 0x92, 0xc4, 0x60, 0xce, 0x84, 0xb7, 0xb9, 0x7a, 0x9b,
  0xb1, 0x28, 0xb5, 0x97, 0xb0, 0xb6, 0x85, 0x8a, 0xa1, 0x5a, 0xc0, 0x96,
  0x9b, 0x91, 0x93, 0x5e, 0x78, 0x4d, 0x90, 0x95, 0x8c, 0x46, 0x85, 0x8f,
  0x7a, 0x70, 0x87, 0xae, 0xa8, 0x7b, 0x81, 0x93, 0x85, 0x40, 0x90, 0x9c,
  0xa3, 0x6b, 0x9a, 0x82, 0x7d, 0x52, 0xc4, 0xa5, 0x7f, 0x70, 0x75, 0x90,
  0x93, 0x63, 0xd7, 0xc2, 0x6e, 0x7a, 0x5d, 0xaa, 0x89, 0x71, 0xbe, 0xb4,
  0x72, 0x48, 0x62, 0x78, 0x82, 0x3d, 0xa9, 0xc4, 0x77, 0x70, 0x95, 0x7b,
  0x98, 0x63, 0x7e, 0xbf, 0x95, 0x94, 0x6d, 0x9f, 0x7f, 0x55, 0x74, 0xb0,
  0xcd, 0xa4, 0x51, 0x63, 0xbb, 0x8f, 0xaa, 0x8c, 0xcf, 0x9c, 0xa7, 0x43,
  0xaa, 0x68, 0x6d, 0x7f, 0xca, 0xe4, 0xac, 0x71, 0x8b, 0x73, 0xa5, 0x67,
  0xcd, 0xff, 0x62, 0x87, 0xbc, 0x5a, 0xb4, 0x7f, 0xbb, 0xda, 0xa7, 0x89,
  0x78, 0x3e, 0x71, 0x8f, 0xc3, 0x70, 0xbb, 0x59, 0x58, 0x66, 0x8a, 0xab,
  0x8e, 0x8e, 0x47, 0x6f, 0xad, 0x6d, 0x87, 0xae, 0xaa, 0x85, 0x67, 0x75,
  0xd5, 0x4e, 0xa6, 0x89, 0xa6, 0x9f, 0x9d, 0x76, 0xdf, 0x4f, 0xba, 0x9a,
  0xac, 0xbd, 0xa7, 0x9d, 0x9b, 0x62, 0x8a, 0x8d, 0xa6, 0x8b, 0x9f, 0x7f,
  0xa3, 0x68, 0x94, 0xa3, 0x98, 0x81, 0x9d, 0x7f, 0x79, 0x60, 0x98, 0x93,
  0x94, 0x49, 0x7e, 0x64, 0x7b, 0x5a, 0xb6, 0xa4, 0x6f, 0x42, 0xa2, 0x63,
  0x72, 0x46, 0xbc, 0x8c, 0xaf, 0x7a, 0x7e, 0x8b, 0x7f, 0x61, 0xcd, 0x85,
  0xbf, 0x7a, 0x88, 0xa5, 0x5a, 0x3a, 0xa9, 0xa1, 0x9f, 0x6d, 0x50, 0xa2,
  0x92, 0x4a, 0xcf, 0xbb, 0xb6, 0x87, 0x72, 0x6e, 0x7b, 0x6e, 0x8a, 0xaa,
  0x9b, 0x45, 0x88, 0x71, 0xba, 0x76, 0xa1, 0xcf, 0x86, 0x69, 0x7d, 0x85,
  0x7c, 0x86, 0x99, 0xbf, 0xdd, 0x7c, 0x55, 0x72, 0xb6, 0x9c, 0x7b, 0x94,
  0xf0, 0xb7, 0x88, 0x60, 0xa9, 0x55, 0x7a, 0x8f, 0xee, 0xd3, 0x81, 0x72,
  0xa2, 0x73, 0x8d, 0x64, 0xed, 0xda, 0x8c, 0x68, 0xa6, 0x51, 0xa6, 0x68,
  0xce, 0xc1, 0xa4, 0x9d, 0x6f, 0x52, 0x71, 0x86, 0xbd, 0xba, 0xd2, 0x75,
  0x68, 0x86, 0x8c, 0xa2, 0x86, 0x68, 0x5e, 0x70, 0x98, 0x5e, 0x93, 0x9a,
  0x8c, 0x91, 0x4e, 0x6b, 0xe5, 0x4e, 0xcc, 0xaa, 0xa2, 0x7d, 0x80, 0xa4,
  0xcc, 0x67, 0xae, 0x8d, 0xe5, 0xb1, 0x8d, 0x8f, 0xb3, 0x41, 0x92, 0x85,
  0xc7, 0x81, 0x94, 0x74, 0x82, 0x44, 0x87, 0xac, 0xbc, 0x6a, 0x80, 0x66,
  0x79, 0x54, 0x92, 0x77, 0xb3, 0x48, 0x82, 0x90, 0x82, 0x6b, 0x84, 0xa3,
  0xb2, 0x5f, 0xa8, 0x6d, 0x77, 0x69, 0x92, 0x9d, 0xca, 0x56, 0x75, 0xa3,
  0x9c, 0x4e, 0xbf, 0x95, 0x8f, 0x6d, 0x89, 0x8f, 0xaf, 0x50, 0xd7, 0xb5,
  0xa3, 0x6d, 0xa3, 0xa2, 0xb7, 0x67, 0xa3, 0xb1, 0xbe, 0x6b, 0x3d, 0x75,
  0xad, 0x78, 0x67, 0xb9, 0x93, 0x57, 0x9a, 0x85, 0x8d, 0x8c, 0x85, 0xaa,
  0x72, 0x56, 0x72, 0x9d, 0x82, 0x9d, 0x54, 0xb2, 0xce, 0x86, 0x97, 0x7a,
  0xd8, 0xb8, 0x72, 0x78, 0xda, 0xac, 0xa2, 0x6e, 0xca, 0x55, 0x47, 0x87,
  0xcb, 0xd8, 0xbe, 0x90, 0xa0, 0x4e, 0xbb, 0x41, 0xc8, 0xff, 0x7a, 0x89,
  0x9a, 0x66, 0x9c, 0x78, 0xc9, 0xdc, 0xcf, 0x82, 0x93, 0x54, 0x69, 0x7c,
  0x94, 0x93, 0x82, 0x8d, 0x7b, 0x8a, 0x8a, 0x91, 0x9a, 0x6e, 0x4a, 0x82,
  0xb1, 0x6b, 0x95, 0x77, 0x92, 0x89, 0x87, 0x7c, 0xe4, 0x79, 0x91, 0x93,
  0xb3, 0x8e, 0x86, 0xa3, 0xe4, 0x6d, 0xc0, 0x8e, 0xb0, 0xae, 0xb9, 0xa7,
  0xb9, 0x37, 0xa1, 0x8c, 0xc9, 0xb0, 0xa7, 0x9b, 0x8e, 0x58, 0xbf, 0x8f,
  0xb9, 0x6f, 0x8b, 0x6d, 0x7d, 0x3d, 0x77, 0x93, 0xc9, 0x4b, 0x95, 0x6c,
  0x7a, 0x61, 0x97, 0x81, 0xc7, 0x5a, 0x93, 0x86, 0x98, 0x6d, 0x90, 0x99,
  0xca, 0x79, 0x90, 0x8a, 0x91, 0x65, 0x86, 0x96, 0xc5, 0x80, 0xa5, 0x98,
  0x96, 0x60, 0xcd, 0xb0, 0xa6, 0x75, 0x62, 0x78, 0x9e, 0x5f, 0xa3, 0xaf,
  0xaa, 0x93, 0x57, 0x5a, 0x9c, 0x6e, 0xb2, 0xac, 0x88, 0x51, 0x85, 0x84,
  0x83, 0x9b, 0x9e, 0xac, 0xa0, 0x5d, 0x5c, 0x93, 0x76, 0x70, 0x44, 0xcb,
  0xd0, 0x9a, 0x5a, 0x60, 0xc8, 0x99, 0x82, 0x74, 0xcd, 0xc1, 0x82, 0x7f,
  0xb1, 0x64, 0x6d, 0x8b, 0xc9, 0xd4, 0xa7, 0x7f, 0xa0, 0x59, 0x9e, 0x56,
  0xbf, 0xfe, 0xa0, 0x8c, 0xa2, 0x52, 0x95, 0x83, 0xd0, 0xdc, 0xc6, 0x8b,
  0x79, 0x55, 0x8e, 0x91, 0xad, 0xb3, 0xa9, 0x80, 0x69, 0x6d, 0x7a, 0x81,
  0x93, 0x8b, 0x5b, 0x8c, 0x97, 0x6f, 0x7a, 0x95, 0x90, 0x9e, 0x94, 0x89,
  0xc8, 0x6c, 0xbc, 0x9d, 0xa5, 0x8d, 0x6c, 0xae, 0xcc, 0x69, 0xa2, 0x9c,
  0xaa, 0x97, 0x93, 0x91, 0xc6, 0x3a, 0xa2, 0x8b, 0xbf, 0x96, 0xcb, 0x9b,
  0x89, 0x64, 0x91, 0x65, 0xd4, 0x6f, 0x78, 0x78, 0x90, 0x5a, 0xa5, 0x73,
  0xb7, 0x5f, 0xa6, 0x6f, 0x89, 0x83, 0x86, 0x6b, 0xd7, 0x6a, 0x8c, 0x9d,
  0x9d, 0x61, 0x8b, 0x7f, 0xb7, 0x5b, 0x78, 0x76, 0x8c, 0x5e, 0xbc, 0xa9,
  0xc6, 0x83, 0x96, 0x82, 0x93, 0x62, 0xac, 0x95, 0xb8, 0x63, 0x85, 0xab,
  0xa0, 0x59, 0xd2, 0x97, 0xbe, 0x8f, 0x6b, 0x70, 0xb4, 0x71, 0x92, 0xb1,
  0xa0, 0x73, 0x6d, 0x8a, 0xaa, 0x7b, 0x7c, 0xa4, 0x9c, 0x6c, 0x7a, 0x78,
  0x88, 0x69, 0x7d, 0xa2, 0x88, 0x73, 0x78, 0x6c, 0xe0, 0x94, 0xb2, 0x70,
  0xa9, 0xce, 0x81, 0x6a, 0xea, 0x41, 0x6c, 0x8e, 0xa2, 0xc2, 0xa2, 0x7e,
  0x92, 0x7c, 0x96, 0x3a, 0x9c, 0xed, 0xb7, 0x82, 0x88, 0x6b, 0x9a, 0x83,
  0x8c, 0xd5, 0xa4, 0x85, 0x72, 0x85, 0x76, 0x91, 0x9c, 0xab, 0xab, 0x84,
  0x6e, 0x74, 0x92, 0x99, 0x83, 0xa4, 0xa6, 0xaf, 0x98, 0x6a, 0xae, 0x96,
  0x7e, 0xa1, 0x6e, 0x9f, 0xd0, 0x48, 0xb1, 0xb2, 0x98, 0x7a, 0x71, 0x9b,
  0xc6, 0x60, 0xa2, 0x98, 0xac, 0x89, 0x9f, 0xac, 0xd0, 0x27, 0xc2, 0x8f,
  0xb1, 0x96, 0xad, 0xa0, 0xad, 0x52, 0xa0, 0x6f, 0xbf, 0x81, 0xa1, 0xb1,
  0x62, 0x4a, 0x84, 0x5f, 0xaf, 0x7b, 0x9d, 0x9c, 0x87, 0x7d, 0x87, 0x82,
  0xa0, 0x86, 0xb3, 0x73, 0x6e, 0x6f, 0x8c, 0x81, 0xa2, 0x5a, 0x9d, 0x7e,
  0xa9, 0x80, 0xa3, 0x95, 0xb5, 0x5c, 0x6b, 0x8e, 0x79, 0x85, 0x95, 0x83,
  0xbf, 0x58, 0x69, 0x7d, 0xa2, 0x7d, 0xb9, 0x9c, 0xb2, 0x83, 0x6e, 0x8b,
  0xb6, 0x62, 0xb1, 0x90, 0x97, 0x6d, 0x5f, 0x88, 0xc7, 0x90, 0x83, 0x97,
  0x6e, 0x7b, 0x62, 0x9f, 0x97, 0x91, 0x7a, 0x8c, 0x7b, 0x9c, 0x89, 0x82,
  0xc8, 0x95, 0xa8, 0x56, 0x87, 0xc4, 0xa5, 0x74, 0xa8, 0x4a, 0x62, 0x76,
  0x63, 0xbe, 0x90, 0xa0, 0x9b, 0x65, 0xc7, 0x55, 0x74, 0xee, 0xa5, 0xa6,
  0x6e, 0x62, 0x83, 0xa4, 0x9c, 0xb0, 0xa3, 0x97, 0x6e, 0x5b, 0x83, 0xb3,
  0x68, 0xba, 0x8a, 0x83, 0x78, 0x7a, 0xa2, 0x93, 0x8e, 0x90, 0x63, 0x9b,
  0xa6, 0x97, 0xa6, 0xa2, 0x72, 0xa9, 0x61, 0x92, 0x9f, 0x66, 0xcd, 0xa9,
  0x7c, 0x92, 0x80, 0xb7, 0xb5, 0x60, 0xcb, 0x77, 0xa7, 0x9d, 0x9c, 0xb0,
  0xd2, 0x63, 0x8e, 0x7f, 0xb1, 0xa7, 0x80, 0x9f, 0xb1, 0x5b, 0xaa, 0x87,
  0xba, 0x7f, 0x55, 0x85, 0x67, 0x5c, 0x71, 0x71, 0x94, 0x4c, 0x80, 0x96,
  0x7e, 0x6d, 0x8e, 0x90, 0x86, 0x59, 0x76, 0x89, 0x96, 0x76, 0x8c, 0x81,
  0xa5, 0x57, 0x7f, 0x8b, 0xab, 0x75, 0xd2, 0x7b, 0xb8, 0x96, 0x73, 0x92,
  0xb9, 0x94, 0x98, 0x8d, 0xc1, 0x84, 0x77, 0x65, 0xc8, 0x7a, 0xc0, 0x93,
  0x9b, 0x68, 0x86, 0xa3, 0xb4, 0x77, 0xb3, 0x99, 0x9a, 0x6b, 0x85, 0x90,
  0x90, 0x6e, 0x8d, 0x97, 0xa7, 0x93, 0x88, 0xa1, 0xa7, 0x85, 0x69, 0x8a,
  0x77, 0x73, 0x74, 0xa2, 0xcb, 0xa7, 0xc2, 0x58, 0x92, 0x7f, 0x7c, 0x6a,
  0xc8, 0x71, 0x6a, 0x71, 0x96, 0xb3, 0xaf, 0x8e, 0xb9, 0x60, 0x90, 0x3e,
  0x76, 0xff, 0x84, 0x88, 0x55, 0x65, 0x8e, 0x60, 0xa0, 0xe7, 0xb8, 0x88,
  0x74, 0x63, 0x80, 0x84, 0x94, 0xb7, 0xad, 0x9d, 0x68, 0x79, 0xa5, 0x90,
  0x8a, 0x98, 0xac, 0x9e, 0xa0, 0x78, 0xc2, 0xa3, 0x88, 0x97, 0x4e, 0x9d,
  0xad, 0x6e, 0xe2, 0xaf, 0x84, 0xb7, 0x92, 0xc5, 0xb9, 0x4a, 0xc6, 0x7f,
  0x9a, 0x91, 0x9c, 0xab, 0xa6, 0x61, 0xba, 0x7c, 0xcc, 0xb9, 0x6d, 0x8f,
  0x8a, 0x4e, 0xa1, 0x62, 0x98, 0x6c, 0x72, 0x80, 0x7a, 0x4a, 0x86, 0x74,
  0x65, 0x77, 0xa3, 0xa7, 0x54, 0x4a, 0x85, 0x7e, 0x93, 0x55, 0x89, 0x80,
  0xa9, 0x88, 0x9a, 0x6f, 0x89, 0x53, 0x75, 0x7b, 0xb3, 0x6f, 0xaa, 0x6c,
  0x7f, 0x5b, 0x96, 0xad, 0xae, 0xa1, 0x91, 0x84, 0x80, 0x89, 0x64, 0x81,
  0xb2, 0x8e, 0xa3, 0x8b, 0xb3, 0x8a, 0x86, 0x89, 0xa6, 0x6f, 0xa8, 0x92,
  0x93, 0x77, 0x85, 0xa8, 0x9c, 0x86, 0x73, 0x9e, 0x76, 0x90, 0x54, 0x83,
  0x61, 0xa1, 0x50, 0x96, 0x57, 0x84, 0x4f, 0xa9, 0xb4, 0xa7, 0xb0, 0x48,
  0x7f, 0xb2, 0x9d, 0xbd, 0xcf, 0x7c, 0x8b, 0x5c, 0xa3, 0xbd, 0x8a, 0xb7,
  0x93, 0x76, 0x84, 0x3f, 0x95, 0xdc, 0xa2, 0xa4, 0x6b, 0x80, 0x77, 0x6d,
  0x66, 0xd4, 0x8e, 0x9e, 0x87, 0xb8, 0x64, 0x89, 0xb2, 0xd1, 0xb0, 0xa1,
  0x7c, 0xa0, 0xa5, 0x9e, 0xa1, 0x95, 0x86, 0x89, 0x96, 0xc0, 0xaf, 0xb6,
  0x37, 0x90, 0x6b, 0xa3, 0xa1, 0x7b, 0xd5, 0x94, 0x29, 0x9f, 0x7f, 0xbe,
  0xcb, 0x75, 0xda, 0x7b, 0x67, 0x93, 0x76, 0x9c, 0xb2, 0x7f, 0xd6, 0x6e,
  0x4b, 0xc3, 0x8b, 0xbd, 0xcb, 0x9b, 0x91, 0x5a, 0x5d, 0x55, 0x77, 0xad,
  0x84, 0x80, 0x7e, 0x65, 0x72, 0x77, 0x87, 0x9a, 0x80, 0xa9, 0x88, 0x75,
  0x81, 0x4f, 0x81, 0x8f, 0xb1, 0x72, 0x97, 0x5d, 0x87, 0x6e, 0xa7, 0x8c,
  0x82, 0x77, 0xce, 0x90, 0x69, 0x84, 0x96, 0x78, 0xa0, 0xad, 0xe0, 0x84,
  0x8a, 0x8f, 0x89, 0x95, 0xb1, 0x8b, 0xab, 0x97, 0x80, 0x83, 0x84, 0xa1,
  0xcb, 0x78, 0xbc, 0x98, 0x92, 0x8e, 0x51, 0xbc, 0xcf, 0x63, 0x8c, 0x8d,
  0x7b, 0x95, 0x7b, 0x76, 0xb3, 0x9b, 0x99, 0xa9, 0xa5, 0x8c, 0x68, 0xbc,
  0xa4, 0x5b, 0xb8, 0x37, 0x96, 0x74, 0x66, 0xc5, 0xcc, 0x64, 0xb5, 0x43,
  0x73, 0xb7, 0x59, 0xcf, 0x97, 0x89, 0x9a, 0x36, 0x86, 0xe5, 0x7b, 0xa6,
  0x8e, 0x4e, 0x73, 0x4c, 0x9c, 0xdb, 0x9c, 0x8b, 0x5c, 0x68, 0x74, 0x7f,
  0x9b, 0xb8, 0x8a, 0xae, 0x95, 0x84, 0xa8, 0x91, 0x90, 0xab, 0x44, 0x9e,
  0x81, 0x9a, 0x9b, 0xb8, 0x77, 0xaf, 0x86, 0x96, 0x86, 0x67, 0x96, 0x8d,
  0x53, 0x7b, 0x9e, 0xba, 0x84, 0x4b, 0x8e, 0x9f, 0x65, 0x94, 0xa6, 0xb8,
  0x93, 0x53, 0xbc, 0x48, 0x63, 0xb2, 0x7f, 0xb1, 0xa3, 0x7c, 0x9a, 0x52,
  0x8a, 0x99, 0x77, 0x88, 0x7a, 0x58, 0x89, 0x49, 0x44, 0x83, 0xa1, 0xae,
  0x43, 0x5c, 0x96, 0x93, 0x7d, 0x49, 0x90, 0xbe, 0x97, 0x94, 0x9e, 0x7c,
  0x8b, 0x53, 0x91, 0x8a, 0xa9, 0x77, 0x75, 0x51, 0x59, 0x76, 0x7b, 0xa6,
  0x98, 0xa0, 0xcc, 0x7e, 0x4b, 0x9f, 0xb2, 0x8e, 0xaa, 0x67, 0xb8, 0x89,
  0x4d, 0x9f, 0x8b, 0x89, 0xb4, 0x77, 0x97, 0x96, 0x99, 0x68, 0x8a, 0x84,
  0xc4, 0x90, 0xcb, 0xa4, 0x5d, 0x9c, 0x7e, 0xa3, 0x83, 0x95, 0x6f, 0x89,
  0x64, 0x7d, 0x59, 0x80, 0xa0, 0x6b, 0xc6, 0x46, 0x77, 0x4d, 0x62, 0xc3,
  0xb7, 0x89, 0xb2, 0x14, 0x89, 0xa4, 0xa7, 0xa9, 0x91, 0x61, 0x8b, 0x3e,
  0x7c, 0xb8, 0xaa, 0xb5, 0x70, 0x97, 0x6a, 0x4c, 0x9b, 0xbf, 0x88, 0x8f,
  0x96, 0x88, 0x68, 0x71, 0x5f, 0xbe, 0xa1, 0xb1, 0x99, 0xa0, 0x9b, 0x8c,
  0x5f, 0x9d, 0x88, 0x94, 0x75, 0x66, 0x8e, 0xc2, 0x7f, 0xc4, 0x84, 0xa2,
  0x7b, 0x6a, 0xaf, 0x88, 0x75, 0x77, 0xa7, 0xb4, 0x7a, 0x83, 0xb5, 0x89,
  0x72, 0x96, 0x84, 0xc4, 0x99, 0x90, 0x90, 0x58, 0x85, 0xa6, 0x6e, 0xbb,
  0x7c, 0x7e, 0x9e, 0x62, 0x6f, 0x87, 0x80, 0xb4, 0x8a, 0x82, 0x6e, 0x50,
  0x79, 0x81, 0x60, 0xa9, 0x47, 0x86, 0x68, 0x5a, 0x87, 0x65, 0x7d, 0xa4,
  0xa3, 0x74, 0xba, 0x32, 0x6c, 0x58, 0xa4, 0x9e, 0x96, 0x58, 0xa6, 0x4b,
  0xb2, 0x95, 0x64, 0x9c, 0x84, 0x6c, 0xb6, 0x79, 0x64, 0xd1, 0xb5, 0x9d,
  0xa3, 0x73, 0x75, 0x9a, 0x80, 0xaa, 0x76, 0xa0, 0x92, 0x69, 0xb2, 0x8e,
  0x7b, 0xa2, 0x79, 0xa6, 0x94, 0x83, 0xb6, 0x88, 0x90, 0x99, 0x69, 0xc3,
  0x6a, 0x76, 0x94, 0x8c, 0xbd, 0x66, 0x84, 0x68, 0xbc, 0x6b, 0x6b, 0x83,
  0xd0, 0x7d, 0x83, 0x74, 0xa1, 0xac, 0x89, 0x81, 0xe2, 0x9a, 0x78, 0x86,
  0x76, 0x98, 0x69, 0xa1, 0xdb, 0x8c, 0x82, 0x79, 0x6a, 0x91, 0x8a, 0x99,
  0xd4, 0x9b, 0x8a, 0x99, 0x58, 0x93, 0x76, 0x9f, 0xe3, 0xa3, 0x81, 0x51,
  0x74, 0xa1, 0x79, 0x81, 0xc7, 0x4d, 0x7d, 0x4e, 0x6f, 0xbd, 0x73, 0x93,
  0xd6, 0x82, 0x5e, 0x68, 0x7e, 0x8a, 0x5d, 0x80, 0xd3, 0x96, 0x6c, 0xb7,
  0x66, 0x85, 0x57, 0x9b, 0xe1, 0x4a, 0x88, 0x82, 0x83, 0x92, 0x6d, 0xa4,
  0xbf, 0x91, 0x8d, 0x53, 0x98, 0x91, 0x96, 0x88, 0xe0, 0x80, 0x80, 0x9b,
  0x68, 0x7c, 0x61, 0x87, 0xcc, 0x95, 0x64, 0x9a, 0x7c, 0xa6, 0x82, 0x94,
  0xdb, 0x60, 0x72, 0xa2, 0x96, 0xa3, 0x7f, 0x8c, 0xd4, 0x88, 0x41, 0x72,
  0x84, 0xae, 0x73, 0x82, 0xd8, 0x72, 0x7f, 0x80, 0x70, 0xb9, 0x6f, 0xad,
  0xce, 0x92, 0x61, 0x95, 0x93, 0x91, 0x92, 0x96, 0xd7, 0x94, 0x94, 0x5f,
  0x93, 0x89, 0x7b, 0xa6, 0xcd, 0xa7, 0x97, 0x5b, 0x99, 0x9d, 0x66, 0x88,
  0xd6, 0x78, 0x63, 0x9a, 0x9c, 0x7f, 0x58, 0x73, 0xc1, 0x5a, 0x7f, 0x7c,
  0xbd, 0x9c, 0x82, 0xaf, 0xca, 0x52, 0x7c, 0x6a, 0xce, 0xa8, 0x99, 0x95,
  0xb9, 0x78, 0x65, 0x77, 0xb7, 0xa8, 0x52, 0x8a, 0xab, 0x9f, 0x74, 0x79,
  0x7b, 0x9b, 0x88, 0xa5, 0xc3, 0x83, 0x6f, 0x97, 0x80, 0xac, 0x99, 0xbc,
  0xbe, 0xb8, 0x7f, 0x68, 0x72, 0x98, 0x96, 0x95, 0xbe, 0x70, 0x9c, 0x6d,
  0x6f, 0x85, 0x77, 0xa5, 0xca, 0xa1, 0x53, 0x6b, 0x6c, 0xaf, 0x73, 0x79,
  0xa1, 0x74, 0xad, 0x52, 0x9d, 0x74, 0x76, 0x81, 0xb7, 0x5e, 0xa4, 0x78,
  0x66, 0x98, 0x65, 0x96, 0xb0, 0x7f, 0x95, 0x51, 0x6a, 0x79, 0x8a, 0xa2,
  0xac, 0x90, 0x7d, 0x5a, 0x7d, 0x8a, 0x66, 0x8c, 0xad, 0x4d, 0x5b, 0x69,
  0x99, 0x96, 0x7c, 0x88, 0xbf, 0x8c, 0x82, 0x6b, 0x6a, 0x90, 0x49, 0x6e,
  0xba, 0x66, 0x98, 0x7a, 0x72, 0x78, 0x5b, 0x8f, 0xae, 0x68, 0x73, 0x68,
  0x79, 0x9a, 0x75, 0xb3, 0xb6, 0xaa, 0x78, 0x5a, 0x88, 0x95, 0x78, 0xa6,
  0xba, 0x62, 0x83, 0x5d, 0x9d, 0x82, 0x90, 0xa6, 0x8c, 0xa2, 0x4b, 0x61,
  0xab, 0x87, 0x8c, 0xaa, 0x70, 0x98, 0x72, 0x8f, 0x9c, 0x90, 0x7d, 0x99,
  0xc4, 0x78, 0x65, 0x58, 0xcf, 0x63, 0xa7, 0x8c, 0xb3, 0x5d, 0x7b, 0x91,
  0x9e, 0x4b, 0xa2, 0xa1, 0x8a, 0x56, 0x79, 0x5f, 0xa8, 0x60, 0x4b, 0x99,
  0x90, 0x7e, 0x83, 0x75, 0x6e, 0x75, 0x79, 0x78, 0x89, 0xaa, 0x50, 0x69,
  0xb8, 0x7b, 0x84, 0x7a, 0xa7, 0x81, 0x7e, 0x5c, 0x8e, 0x53, 0x96, 0x76,
  0x8f, 0x86, 0x89, 0x80, 0x81, 0x92, 0x76, 0x94, 0x96, 0x70, 0x73, 0xa6,
  0x98, 0x90, 0x78, 0x63, 0xa1, 0x56, 0x56, 0x79, 0x6c, 0x86, 0xa7, 0xa4,
  0x9b, 0x7c, 0x8d, 0x86, 0x88, 0x73, 0x52, 0x6d, 0x7d, 0x74, 0xa8, 0x72,
  0x9e, 0x72, 0x8d, 0x92, 0x75, 0x87, 0xa3, 0x73, 0x9d, 0x78, 0x79, 0xa4,
  0x79, 0x85, 0x6c, 0x4a, 0xac, 0x8f, 0x75, 0x6b, 0x89, 0x6d, 0x8e, 0x7a,
  0x8b, 0x7d, 0x4e, 0x6b, 0x84, 0x89, 0x8f, 0x76, 0x80, 0xb6, 0x8b, 0x93,
  0x9b, 0x6b, 0x74, 0x6f, 0x7c, 0x85, 0x5a, 0x7d, 0x98, 0xa4, 0xa2, 0x73,
  0x85, 0x85, 0x8f, 0x8d, 0x8f, 0x74, 0x6d, 0x93, 0xbc, 0xa5, 0xc1, 0x8b,
  0x96, 0x86, 0x82, 0x94, 0x6c, 0x8b, 0x89, 0x97, 0x86, 0x91, 0x73, 0x8b,
  0x97, 0x81, 0x7d, 0x65, 0x92, 0x66, 0x80, 0x75, 0xb6, 0x83, 0xb8, 0x6b,
  0x8c, 0x4a, 0x91, 0x67, 0xc4, 0x50, 0x9a, 0x54, 0x4e, 0x53, 0x65, 0x7b,
  0x85, 0x81, 0x7c, 0x5d, 0x73, 0x93, 0x90, 0x82, 0x8b, 0x9e, 0x72, 0x68,
  0x6e, 0x77, 0x68, 0x70, 0x86, 0x88, 0xa3, 0x8c, 0x7d, 0x8d, 0x67, 0x89,
  0x91, 0x79, 0xa8, 0x78, 0x94, 0x6d, 0x5e, 0x99, 0x87, 0x8a, 0x6e, 0x5b,
  0x96, 0x6c, 0x71, 0xa4, 0x7f, 0x87, 0x78, 0x93, 0x7a, 0x79, 0x95, 0x9c,
  0x64, 0xa4, 0x76, 0x5b, 0x7b, 0x4a, 0x60, 0x70, 0x95, 0x69, 0x93, 0x83,
  0x60, 0x7c, 0x7f, 0x66, 0x6f, 0xa8, 0x61, 0x6f, 0x68, 0x6d, 0x75, 0x5d,
  0x7c, 0x9d, 0x9a, 0xa2, 0x62, 0x6a, 0x76, 0x72, 0xa4, 0xa7, 0x5c, 0xa6,
  0x6d, 0x73, 0x62, 0x5a, 0xa1, 0x9d, 0x4e, 0x8c, 0x5a, 0xb1, 0x81, 0x77,
  0xa4, 0xbe, 0x34, 0x81, 0x69, 0xab, 0x92, 0x85, 0x96, 0x86, 0x72, 0x87,
  0x8b, 0x80, 0x9f, 0x6f, 0xcb, 0x86, 0x6d, 0x85, 0x79, 0x9a, 0x91, 0x75,
  0xba, 0x74, 0x6b, 0x63, 0x82, 0xa5, 0x58, 0x8a, 0x9d, 0x80, 0x9a, 0x96,
  0x89, 0xa5, 0x83, 0x90, 0x86, 0x6a, 0x4f, 0x66, 0x6c, 0x7b, 0x8a, 0x79,
  0xb2, 0x93, 0xaf, 0x75, 0x62, 0x86, 0xa0, 0xb6, 0xa6, 0x85, 0x92, 0x68,
  0x85, 0x52, 0x7b, 0x85, 0x76, 0x7d, 0x8d, 0x65, 0x97, 0x82, 0x6b, 0x84,
  0xb9, 0xb1, 0x9d, 0x71, 0x89, 0x93, 0x6a, 0xa3, 0x8b, 0x8e, 0xbd, 0x77,
  0x7f, 0x9d, 0x91, 0xac, 0x6e, 0x72, 0xa2, 0x70, 0x89, 0x7b, 0x7e, 0xc5,
  0xa2, 0x91, 0x9d, 0x86, 0x9f, 0x80, 0xa1, 0x99, 0x76, 0x88, 0x98, 0x84,
  0x60, 0x52, 0x69, 0x82, 0x4c, 0xb9, 0x65, 0x60, 0x89, 0x7a, 0x5a, 0xa3,
  0x4c, 0x8d, 0x71, 0x81, 0x5d, 0x7d, 0x95, 0x89, 0x56, 0x83, 0x89, 0x83,
  0x52, 0x7f, 0x7e, 0x6b, 0x76, 0x9b, 0x77, 0x6c, 0x6d, 0x98, 0xa6, 0x84,
  0x80, 0x9f, 0x6f, 0x57, 0x73, 0x97, 0x86, 0x54, 0xc2, 0x7f, 0x5a, 0x5d,
  0x77, 0xa1, 0x73, 0x61, 0x9b, 0xa3, 0x5a, 0x91, 0x64, 0x8d, 0x7f, 0x82,
  0x7a, 0xae, 0x86, 0x95, 0x77, 0x9f, 0x66, 0x84, 0xb1, 0x95, 0x4e, 0x93,
  0x57, 0x6d, 0x7f, 0x8b, 0xb1, 0x88, 0x76, 0xa8, 0x6f, 0x99, 0x8e, 0x74,
  0x87, 0x91, 0x9a, 0x87, 0x8c, 0x89, 0x9f, 0x9b, 0x78, 0x6c, 0x80, 0x64,
  0x58, 0x5d, 0x48, 0x5d, 0xac, 0x7a, 0xa7, 0x86, 0x74, 0x5b, 0x73, 0x85,
  0xb4, 0x9a, 0x75, 0x7a, 0x9c, 0x5c, 0x98, 0x87, 0x89, 0x85, 0xb9, 0x76,
  0x88, 0xb4, 0x48, 0x96, 0x80, 0xa9, 0x8a, 0x86, 0x83, 0x93, 0x5a, 0x9c,
  0x92, 0x94, 0xbc, 0xa4, 0x7d, 0x9e, 0x9e, 0xb9, 0xb0, 0x7e, 0xbb, 0x62,
  0x6c, 0x76, 0x76, 0xa6, 0x6e, 0x74, 0xbc, 0x8b, 0x90, 0x85, 0x63, 0x91,
  0x35, 0xb7, 0x7c, 0x80, 0x87, 0x77, 0xb6, 0x77, 0x62, 0xa1, 0x56, 0x6d,
  0x83, 0xa7, 0x81, 0x40, 0x82, 0x82, 0x78, 0x89, 0x64, 0x9e, 0x77, 0x6d,
  0x7a, 0x80, 0x95, 0x83, 0x53, 0x84, 0xaf, 0x67, 0x93, 0xb8, 0x86, 0x61,
  0x68, 0x72, 0x8f, 0x68, 0x8c, 0x95, 0x69, 0x70, 0x5d, 0x7e, 0x87, 0x67,
  0xa3, 0x9e, 0x5f, 0x4d, 0x67, 0xb5, 0x8c, 0x6f, 0xa7, 0x8d, 0x53, 0x8e,
  0x79, 0xa7, 0x8a, 0x88, 0xa8, 0x83, 0x5e, 0xa0, 0x93, 0x87, 0x72, 0x85,
  0x89, 0x9e, 0x5d, 0x99, 0x9e, 0x83, 0x8f, 0x64, 0xce, 0x72, 0x89, 0x7c,
  0x73, 0x73, 0x73, 0x7c, 0x93, 0x6c, 0x90, 0x8d, 0x91, 0x73, 0x79, 0x73,
  0x85, 0x7c, 0x78, 0xa0, 0x74, 0x7f, 0x76, 0x88, 0xae, 0x6d, 0x8c, 0x80,
  0x82, 0x57, 0x89, 0xaa, 0x90, 0x69, 0x92, 0x98, 0x77, 0x69, 0x6b, 0x98,
  0x5d, 0xa3, 0x89, 0x85, 0x83, 0x87, 0x28, 0xc1, 0x74, 0x78, 0x8e, 0x79,
  0x61, 0xaa, 0x97, 0xa6, 0x9c, 0x99, 0xa5, 0x96, 0x75, 0x80, 0x8b, 0xb1,
  0xc9, 0xa6, 0xd7, 0x92, 0xa6, 0x5d, 0x7d, 0x9b, 0x8a, 0x94, 0x5d, 0xb1,
  0x82, 0xb9, 0x85, 0xad, 0x5f, 0x92, 0x43, 0x7c, 0x85, 0x6f, 0xbe, 0x7d,
  0x56, 0x9a, 0x21, 0x66, 0x80, 0x98, 0xa1, 0x6c, 0x72, 0x7d, 0x6b, 0x86,
  0x60, 0x43, 0xc6, 0x61, 0x79, 0x6e, 0x92, 0x74, 0x39, 0x94, 0x6a, 0x7a,
  0x93, 0x90, 0x6e, 0x73, 0x64, 0xa7, 0x5e, 0x8b, 0xa1, 0x9d, 0x78, 0x70,
  0x62, 0xc0, 0xa2, 0x5f, 0xbf, 0xab, 0x5d, 0x7c, 0x7d, 0xa0, 0x6a, 0x7b,
  0x8d, 0xae, 0x57, 0x87, 0x6b, 0xaa, 0x95, 0x53, 0x72, 0xa0, 0x5a, 0xa7,
  0x7f, 0x95, 0xa0, 0x88, 0xa5, 0x84, 0x56, 0xa0, 0x8d, 0xac, 0x8e, 0x6d,
  0x9c, 0x6b, 0x5a, 0xa5, 0x81, 0x8d, 0x62, 0x47, 0xaa, 0x5b, 0x7e, 0x91,
  0x91, 0x87, 0x8f, 0x79, 0xab, 0x7c, 0x7d, 0x7e, 0x77, 0x9c, 0x7c, 0x8a,
  0x82, 0x62, 0x81, 0x66, 0x96, 0x62, 0x6f, 0xac, 0x97, 0x93, 0x90, 0xb4,
  0x69, 0x6b, 0xa3, 0xcb, 0x64, 0x8d, 0x8c, 0x96, 0x74, 0x88, 0x68, 0xa6,
  0x9c, 0xa0, 0x9a, 0xb0, 0x8b, 0xb7, 0x87, 0x92, 0x8e, 0x8f, 0xa7, 0xa8,
  0x81, 0xbd, 0x96, 0xb0, 0xd6, 0xad, 0xca, 0xac, 0x80, 0x89, 0x91, 0x9c,
  0x85, 0x7c, 0xb7, 0x8f, 0x89, 0xa9, 0xc2, 0xb6, 0x53, 0x72, 0x63, 0x95,
  0x7c, 0x77, 0x8d, 0x83, 0x37, 0x8f, 0x31, 0x7b, 0x71, 0x6d, 0x7d, 0x9a,
  0x3d, 0x82, 0x88, 0x9a, 0x77, 0x46, 0xb3, 0x79, 0x65, 0xae, 0x68, 0x87,
  0x62, 0x8c, 0x89, 0x73, 0x86, 0x90, 0x44, 0x83, 0x64, 0x90, 0xb6, 0x93,
  0x84, 0x80, 0x49, 0x90, 0x73, 0xbf, 0x53, 0x58, 0x9e, 0x8c, 0x72, 0x7e,
  0x5f, 0x93, 0x96, 0x73, 0xb4, 0x95, 0x16, 0x9c, 0x99, 0x92, 0x61, 0x6c,
  0xa8, 0x81, 0x46, 0xad, 0x93, 0x9a, 0xa3, 0x89, 0x7e, 0x6d, 0x53, 0x8b,
  0x6a, 0x84, 0xa9, 0x4b, 0x83, 0x89, 0x71, 0xb4, 0x6e, 0x92, 0x79, 0x6e,
  0x8a, 0x71, 0xab, 0xaa, 0x6a, 0x7f, 0x71, 0x7c, 0xce, 0x5d, 0xbb, 0x7d,
  0x80, 0x8b, 0x58, 0xa0, 0x8f, 0x7e, 0x81, 0x97, 0x95, 0x74, 0x4f, 0xa4,
  0x94, 0x9b, 0x9a, 0x9e, 0x72, 0x38, 0x50, 0xb9, 0x43, 0xae, 0x75, 0x8f,
  0x88, 0x7c, 0x4a, 0xb2, 0x65, 0x9b, 0x6a, 0xc1, 0x71, 0x81, 0x4b, 0xb1,
  0x9c, 0x8e, 0xe0, 0x94, 0x72, 0x6a, 0x7b, 0xb8, 0xab, 0x82, 0xb9, 0x8b,
  0x6e, 0x8d, 0xd5, 0xbe, 0x70, 0x88, 0x85, 0xa2, 0x7b, 0x88, 0xa4, 0x7f,
  0x58, 0x90, 0x4b, 0x97, 0x6b, 0x7b, 0xa3, 0xb6, 0x51, 0x89, 0x1e, 0x96,
  0x7a, 0x60, 0x65, 0x75, 0x49, 0x8e, 0x4d, 0xa0, 0x5e, 0x38, 0x5e, 0x67,
  0x54, 0xb1, 0x6e, 0x96, 0x36, 0x93, 0x94, 0x93, 0x76, 0x7c, 0x4a, 0x7e,
  0x6a, 0x9e, 0x91, 0x8a, 0x9a, 0x88, 0x6f, 0x9d, 0x79, 0xc6, 0x9d, 0x72,
  0xb4, 0xab, 0x50, 0x9f, 0x87, 0xac, 0x8f, 0x6d, 0x78, 0x8a, 0x3e, 0xa1,
  0x76, 0x81, 0x84, 0x73, 0x96, 0x9f, 0x3e, 0xa9, 0x8d, 0x92, 0xad, 0x92,
  0x86, 0x83, 0x5c, 0xa7, 0x88, 0xaf, 0x7a, 0x7b, 0xac, 0x8a, 0x69, 0xb4,
  0x84, 0x7a, 0x80, 0x55, 0x9b, 0x59, 0x61, 0x95, 0x74, 0x86, 0x99, 0x90,
  0x97, 0x68, 0x58, 0x83, 0x95, 0x9b, 0x99, 0xb3, 0x9b, 0x56, 0x7e, 0x9f,
  0xa2, 0x60, 0x6a, 0xaf, 0x9f, 0xba, 0x81, 0xac, 0xa5, 0x4e, 0x50, 0xab,
  0x36, 0xa6, 0x84, 0xa8, 0x95, 0x58, 0x5d, 0xc0, 0x74, 0x7d, 0x8c, 0x9c,
  0x9f, 0xa5, 0x41, 0xc5, 0x95, 0x98, 0xc7, 0xb1, 0x74, 0x9a, 0x53, 0xd4,
  0xbb, 0x87, 0xc7, 0x87, 0x9c, 0x83, 0x86, 0xc4, 0x67, 0x8a, 0x82, 0xbb,
  0x9a, 0x81, 0x92, 0xc3, 0x37, 0x7f, 0x14, 0xa6, 0x8b, 0x72, 0x80, 0x87,
  0x43, 0x96, 0x16, 0xa6, 0x5d, 0x88, 0x5a, 0x61, 0x4a, 0x70, 0x54, 0x9f,
  0x75, 0x58, 0x6d, 0x79, 0x41, 0x88, 0x8f, 0xb8, 0x51, 0x90, 0x96, 0x85,
  0xa6, 0x7e, 0x78, 0x9e, 0x4b, 0xa6, 0x76, 0x95, 0x9a, 0x7e, 0x83, 0x8f,
  0x58, 0xb5, 0x78, 0x85, 0x94, 0x76, 0x61, 0xac, 0x6a, 0xcb, 0x9f, 0x7e,
  0x86, 0x71, 0x18, 0xab, 0x5a, 0xb1, 0x63, 0x82, 0x93, 0x88, 0x2f, 0xc1,
  0x85, 0x83, 0x76, 0x74, 0x78, 0x7c, 0x3e, 0xc7, 0x74, 0xa1, 0x7f, 0x85,
  0xa7, 0x7b, 0x62, 0xb6, 0x74, 0x8e, 0x54, 0x5d, 0xbc, 0x62, 0x82, 0x9f,
  0x69, 0x90, 0x81, 0x7d, 0x76, 0x5a, 0x69, 0x8c, 0xa6, 0x82, 0x70, 0x93,
  0x89, 0x64, 0x82, 0x9f, 0x84, 0x59, 0x4c, 0x9e, 0x8a, 0x80, 0x79, 0xb7,
  0x8d, 0x29, 0x69, 0xcc, 0x52, 0xb1, 0x65, 0xaf, 0x9b, 0x6b, 0x5a, 0xb0,
  0x49, 0x8f, 0x97, 0xb0, 0x73, 0x58, 0x70, 0xb8, 0x9f, 0x77, 0xa6, 0xa6,
  0x81, 0x4f, 0x53, 0xda, 0xd9, 0x7f, 0xbf, 0xa4, 0xb5, 0x43, 0xd4, 0xb7,
  0x85, 0x81, 0x71, 0x9b, 0x97, 0x88, 0xa1, 0x90, 0x47, 0xa9, 0x19, 0x8e,
  0xa0, 0x7b, 0x8c, 0xb0, 0x6a, 0x89, 0x3f, 0x90, 0x61, 0x8b, 0x4e, 0x78,
  0x5f, 0xb0, 0x3a, 0xa3, 0x52, 0x4b, 0x77, 0x8e, 0x64, 0x9b, 0x79, 0xb0,
  0x30, 0x89, 0x92, 0x65, 0x8f, 0x56, 0x93, 0xbd, 0x54, 0xc0, 0x76, 0x81,
  0x81, 0x8e, 0x9d, 0xaf, 0x62, 0xd5, 0x72, 0x6d, 0x6e, 0x86, 0x4a, 0xc9,
  0x50, 0xc5, 0x5d, 0x97, 0xa3, 0x7a, 0x47, 0xad, 0x64, 0xb6, 0x7c, 0x70,
  0x85, 0x7e, 0x1a, 0x96, 0x6f, 0xb9, 0xc3, 0x69, 0xb2, 0x83, 0x4b, 0x9a,
  0x75, 0x73, 0x6f, 0xa5, 0xb4, 0x93, 0x71, 0xc0, 0x84, 0x89, 0xa5, 0x5e,
  0x85, 0x77, 0x5c, 0xba, 0x8a, 0x69, 0x5a, 0x93, 0x88, 0x70, 0x68, 0x8e,
  0x87, 0x5e, 0x76, 0x8f, 0x84, 0x60, 0xa3, 0xb2, 0x85, 0x69, 0x6c, 0xa4,
  0x79, 0xa5, 0x8f, 0xcc, 0x81, 0x51, 0x57, 0xba, 0x54, 0x9c, 0x87, 0xcc,
  0x9a, 0x55, 0x3d, 0xbb, 0x3c, 0x8b, 0x7a, 0xbf, 0x96, 0x49, 0x68, 0xcc,
  0x7e, 0x87, 0xb1, 0xb7, 0x85, 0x98, 0x80, 0xa5, 0xeb, 0x7b, 0xa7, 0xa1,
  0x95, 0x7a, 0x9b, 0xb7, 0x65, 0x82, 0x92, 0xa7, 0xa8, 0x91, 0xbd, 0x95,
  0x5b, 0x73, 0x15, 0x71, 0x96, 0x79, 0x8f, 0x8b, 0x7c, 0x98, 0x28, 0xb3,
  0x97, 0x78, 0x85, 0x7f, 0x49, 0x94, 0x56, 0x99, 0x45, 0x6d, 0x6a, 0x82,
  0x73, 0xae, 0x71, 0xa7, 0x42, 0x82, 0x5b, 0x98, 0xa7, 0x62, 0x85, 0xb6,
  0x56, 0xac, 0x54, 0x88, 0x78, 0x74, 0x6a, 0xbb, 0x74, 0x9b, 0x55, 0x75,
  0x63, 0x7f, 0x70, 0xb2, 0x4d, 0xb7, 0x6a, 0x75, 0x87, 0x77, 0x1d, 0x9c,
  0x5c, 0xaa, 0x92, 0x55, 0x87, 0x6f, 0x2c, 0xb4, 0x73, 0xc7, 0xbb, 0x6d,
  0x85, 0xa1, 0x2f, 0xc2, 0x71, 0xc4, 0x93, 0x54, 0xa9, 0x76, 0x68, 0xc7,
  0x5e, 0x9d, 0x52, 0x6c, 0x8c, 0x58, 0x5d, 0x9b, 0x85, 0x84, 0x90, 0x9c,
  0x6c, 0x54, 0xac, 0xa8, 0x7a, 0x49, 0x84, 0xba, 0x91, 0x5c, 0x8b, 0x9e,
  0xa8, 0x49, 0x75, 0xc0, 0x87, 0xb4, 0x95, 0xc0, 0x91, 0x4f, 0x51, 0x9b,
  0x62, 0xa6, 0x50, 0xcd, 0x83, 0x68, 0x64, 0xa6, 0x6d, 0xb9, 0x8a, 0xac,
  0x8b, 0x5b, 0x70, 0xaf, 0x8f, 0xa7, 0xaa, 0xa2, 0x9a, 0x6d, 0x65, 0xbb,
  0xd0, 0x71, 0xcc, 0xaa, 0xa4, 0x44, 0xaf, 0xa0, 0x70, 0x88, 0x77, 0x8c,
  0x94, 0x91, 0xa3, 0xa5, 0x3e, 0x8b, 0x22, 0x95, 0x9b, 0x8e, 0x8d, 0xa5,
  0x62, 0x90, 0x49, 0xb2, 0x60, 0x76, 0x5f, 0x60, 0x48, 0x86, 0x49, 0xb1,
  0x57, 0x3c, 0x67, 0x55, 0x61, 0x79, 0x7e, 0xb4, 0x51, 0x79, 0xa9, 0x97,
  0x8c, 0x8c, 0x8d, 0xb7, 0x4a, 0xc0, 0x6c, 0xa4, 0x77, 0x74, 0x5d, 0xb3,
  0x4b, 0xc0, 0x6e, 0x85, 0xa7, 0x77, 0x3d, 0xc8, 0x42, 0x8b, 0xa5, 0x7d,
  0x76, 0x7a, 0x1c, 0xaf, 0x41, 0xbc, 0x88, 0x5c, 0x77, 0x73, 0x35, 0xde,
  0x4d, 0xcc, 0xba, 0x7c, 0x84, 0x6f, 0x5a, 0xc6, 0x6a, 0xdc, 0xaa, 0x66,
  0x90, 0x6d, 0x5f, 0xd5, 0x69, 0x96, 0x90, 0x7f, 0x96, 0x73, 0x83, 0xbd,
  0x60, 0x72, 0x71, 0x8b, 0x99, 0x64, 0x83, 0x8a, 0x8a, 0x54, 0x9a, 0x9c,
  0x78, 0x60, 0x80, 0x90, 0xa5, 0x4c, 0x76, 0xbc, 0x81, 0x87, 0x96, 0xa1,
  0x8b, 0x3a, 0x5e, 0xad, 0x66, 0x97, 0x64, 0xcb, 0x83, 0x48, 0x9f, 0xb9,
  0x51, 0x92, 0x9b, 0xb8, 0x8a, 0x3e, 0x56, 0x98, 0xa5, 0xaa, 0xb7, 0xa7,
  0xa2, 0x82, 0x67, 0xc8, 0xb9, 0x98, 0x9e, 0x86, 0xa8, 0x61, 0x91, 0xbe,
  0x7e, 0x99, 0x84, 0x97, 0xa8, 0x95, 0xa0, 0x95, 0x13, 0x9a, 0x52, 0x9b,
  0x7b, 0x8d, 0x9e, 0x93, 0x80, 0x8f, 0x48, 0x90, 0x6d, 0x71, 0x51, 0x72,
  0x55, 0x67, 0x38, 0xa2, 0x54, 0x76, 0x66, 0x7c, 0x6c, 0x91, 0x5f, 0xb2,
  0x5b, 0x95, 0x62, 0x87, 0xa1, 0x92, 0x6e, 0xb8, 0x8b, 0x8d, 0x7a, 0x76,
  0x8a, 0x7b, 0x8b, 0xbd, 0x42, 0xa1, 0x90, 0x9e, 0x91, 0x77, 0x59, 0xbc,
  0x50, 0xac, 0x84, 0x73, 0x8e, 0x54, 0x14, 0x91, 0x5d, 0xad, 0x7b, 0x5a,
  0x82, 0x86, 0x0e, 0xbc, 0x41, 0x97, 0xa5, 0x50, 0x79, 0x59, 0x2e, 0xc3,
  0x6f, 0xbb, 0x89, 0x83, 0xa9, 0x74, 0x6d, 0xce, 0x6b, 0xa5, 0xb2, 0x85,
  0x87, 0x55, 0x57, 0xc1, 0x6c, 0x79, 0x8c, 0x93, 0x85, 0x40, 0x7b, 0xb0,
  0x8a, 0x73, 0xa1, 0xa0, 0xa3, 0x80, 0x86, 0xa7, 0x90, 0x70, 0x30, 0xd6,
  0x84, 0x90, 0xa1, 0xb8, 0xa6, 0x51, 0x6b, 0xc2, 0x2f, 0xb1, 0x8e, 0xc3,
  0x84, 0x3b, 0xa7, 0x94, 0x63, 0xa6, 0x78, 0xbf, 0x9d, 0x25, 0x7b, 0x95,
  0x7d, 0x75, 0xc4, 0xa7, 0x87, 0x72, 0x48, 0xc6, 0xe9, 0x90, 0xaa, 0x63,
  0xa8, 0x5d, 0xdf, 0xcd, 0x57, 0x8c, 0x6b, 0xa1, 0xc3, 0x78, 0xa1, 0x94,
  0x19, 0xac, 0x3c, 0x9b, 0xa2, 0x8b, 0x9f, 0x91, 0x3f, 0xb0, 0x50, 0x95,
  0x71, 0x7b, 0x69, 0x8d, 0x6b, 0x65, 0x52, 0xa4, 0x6f, 0x77, 0x54, 0x7d,
  0x7b, 0x9d, 0xa0, 0x95, 0x6b, 0x84, 0x6f, 0x66, 0x6d, 0x79, 0x70, 0x9a,
  0x6e, 0x90, 0x88, 0x91, 0x86, 0x99, 0x49, 0xb8, 0x7d, 0xc7, 0x6f, 0x8e,
  0x84, 0x67, 0x45, 0xa1, 0x5e, 0x9b, 0x77, 0x7c, 0x8e, 0x75, 0x2e, 0xa9,
  0x4f, 0x95, 0x6e, 0x5b, 0x7e, 0x88, 0x1d, 0xbc, 0x5f, 0x9f, 0xbf, 0x9d,
  0x35, 0x96, 0x48, 0xb2, 0x6f, 0x8f, 0xc3, 0x6d, 0x6c, 0x61, 0x9d, 0xc4,
  0x72, 0x8d, 0x98, 0x6b, 0x75, 0x56, 0x6a, 0xba, 0x95, 0x97, 0x87, 0x80,
  0x6a, 0x4a, 0x51, 0xb0, 0x95, 0x5a, 0x9b, 0xab, 0x8e, 0x62, 0xa3, 0x9e,
  0xa5, 0x55, 0x30, 0xa9, 0x94, 0xa3, 0xb5, 0x8b, 0xa6, 0x4d, 0x71, 0xb0,
  0x3e, 0xba, 0x9a, 0xd1, 0xb5, 0x63, 0x83, 0x9e, 0x7d, 0xa9, 0x8c, 0xa9,
  0xb6, 0x74, 0x89, 0xac, 0x95, 0x77, 0x9d, 0x9a, 0xc3, 0x45, 0x5c, 0x90,
  0xbb, 0x8f, 0xc0, 0x95, 0xbe, 0x79, 0xc7, 0xb5, 0x89, 0x9f, 0x88, 0x7b,
  0xe3, 0x5c, 0xb9, 0xa7, 0x16, 0x8b, 0x3b, 0x7a, 0xab, 0x90, 0x9c, 0x7b,
  0x5c, 0x99, 0x59, 0x94, 0x70, 0x78, 0x64, 0x7c, 0x60, 0xa1, 0x47, 0x91,
  0x61, 0x5b, 0x54, 0x72, 0x89, 0xb0, 0x71, 0xbc, 0x7e, 0x92, 0x71, 0x88,
  0x66, 0x9a, 0x75, 0x9a, 0x74, 0x85, 0x73, 0x77, 0x8c, 0x95, 0x6c, 0xaf,
  0x51, 0x8d, 0x71, 0x5b, 0x7a, 0x79, 0x62, 0x8f, 0x77, 0xac, 0x78, 0x8a,
  0x92, 0x77, 0x41, 0x85, 0x93, 0xac, 0x99, 0x81, 0x5b, 0x56, 0x16, 0xa0,
  0x84, 0x94, 0x78, 0x79, 0x5d, 0x6c, 0x3a, 0xbc, 0xb9, 0xbe, 0xc6, 0x6f,
  0x56, 0x80, 0x7c, 0xa8, 0x6e, 0x68, 0x83, 0x61, 0x7c, 0x56, 0x74, 0xca,
  0x79, 0x73, 0xb7, 0x79, 0x8e, 0x73, 0x71, 0xb8, 0xb1, 0x55, 0x6f, 0xab,
  0x8d, 0x61, 0x86, 0xa5, 0xcc, 0x5a, 0x30, 0xd2, 0x87, 0xa7, 0xb3, 0xac,
  0xea, 0x51, 0x47, 0xa6, 0x68, 0xbf, 0x67, 0xb5, 0xd0, 0x39, 0x85, 0x8f,
  0x66, 0x9b, 0x8f, 0x97, 0xc9, 0x47, 0x8e, 0xb3, 0x7d, 0x85, 0x9e, 0x86,
  0xce, 0x83, 0x60, 0xa6, 0xcc, 0x9c, 0xb4, 0x8b, 0xcb, 0x50, 0xb3, 0xa8,
  0x7c, 0x98, 0xab, 0x73, 0xc3, 0x5e, 0xa2, 0xa7, 0x2b, 0x84, 0x69, 0x8d,
  0xb4, 0x71, 0x71, 0xac, 0x3b, 0xb7, 0x43, 0x85, 0xad, 0x77, 0x66, 0x78,
  0x65, 0x9a, 0x6c, 0x8e, 0x8e, 0x55, 0x62, 0x5a, 0x6e, 0x8d, 0x61, 0xc6,
  0x9f, 0x5f, 0x82, 0x6f, 0x62, 0x8b, 0x6a, 0x91, 0x95, 0x6c, 0x7e, 0x95,
  0x8e, 0x81, 0x43, 0xa5, 0x7f, 0x91, 0x82, 0x71, 0x65, 0x6d, 0x47, 0x98,
  0x87, 0x84, 0x82, 0x90, 0x7d, 0x7d, 0x47, 0x96, 0x70, 0xa2, 0x81, 0x85,
  0x79, 0x7d, 0x34, 0xae, 0x87, 0x94, 0xc2, 0xab, 0x51, 0x95, 0x27, 0xb0,
  0xae, 0xa5, 0xa2, 0xa2, 0x67, 0x77, 0x69, 0xbf, 0x87, 0x84, 0x87, 0x8e,
  0x76, 0x75, 0x48, 0xa9, 0x77, 0x5a, 0x7a, 0xa8, 0x76, 0x97, 0x8a, 0x9c,
  0xad, 0x77, 0xb1, 0xb1, 0xb0, 0x72, 0x73, 0x99, 0xcd, 0x3a, 0x33, 0xd9,
  0xa6, 0xac, 0x82, 0xb1, 0xce, 0x59, 0x77, 0xc1, 0x4b, 0xa8, 0x85, 0xac,
  0xc2, 0x52, 0x9b, 0xc7, 0x83, 0xb4, 0x9a, 0x95, 0xc7, 0x4f, 0x9c, 0xa5,
  0x94, 0x8b, 0x9b, 0x71, 0xba, 0x87, 0x6e, 0xbc, 0xbc, 0xac, 0xac, 0x82,
  0xca, 0x77, 0xb4, 0xb7, 0x8b, 0x8e, 0x99, 0x46, 0xbc, 0x66, 0xd5, 0xac,
  0x40, 0xaf, 0x48, 0x6a, 0xbe, 0x88, 0xb0, 0xaf, 0x44, 0xa9, 0x6e, 0x97,
  0x9e, 0x85, 0x84, 0x8c, 0x53, 0x7e, 0x78, 0x99, 0x8f, 0x8a, 0x9e, 0x86,
  0x7a, 0xa5, 0x8b, 0x90, 0x84, 0x6c, 0x61, 0x88, 0x86, 0x7c, 0x5e, 0xa5,
  0xa5, 0x70, 0x81, 0x7d, 0x9b, 0x89, 0x55, 0x81, 0xaa, 0x96, 0xa8, 0x7b,
  0x8f, 0x8f, 0x55, 0x97, 0x97, 0xa5, 0x7f, 0x77, 0x7d, 0x88, 0x36, 0x9e,
  0xc1, 0xbd, 0x8a, 0x8f, 0x6e, 0x60, 0x2c, 0xac, 0x90, 0xb3, 0xb8, 0x89,
  0x4d, 0x76, 0x26, 0xa9, 0xae, 0xa5, 0xb0, 0x8d, 0x53, 0x7b, 0xa3, 0xaa,
  0x94, 0x88, 0xb3, 0x98, 0x75, 0x7d, 0x98, 0xa0, 0xa8, 0x5c, 0x86, 0x8c,
  0x68, 0x73, 0x60, 0xb5, 0xbd, 0x85, 0x6b, 0xa1, 0xa1, 0x50, 0x8c, 0x9d,
  0xd5, 0x5e, 0x37, 0xe0, 0x8c, 0xc4, 0xba, 0xa4, 0xdc, 0x46, 0x6f, 0xac,
  0x38, 0xca, 0x6b, 0xa9, 0xde, 0x58, 0x9d, 0xc1, 0x83, 0xa1, 0x8b, 0x82,
  0xd7, 0x3d, 0xa2, 0xb9, 0x79, 0x81, 0xbb, 0x61, 0xcc, 0x4f, 0x8a, 0xa7,
  0xa3, 0x71, 0x98, 0x63, 0xda, 0x69, 0xa2, 0xc1, 0x6f, 0x80, 0x7b, 0x66,
  0xd7, 0x77, 0xc8, 0xb0, 0x40, 0x78, 0x73, 0x78, 0xc5, 0x95, 0x9a, 0xa0,
  0x62, 0x9d, 0x4f, 0x92, 0x88, 0x8e, 0x67, 0x7f, 0x55, 0x96, 0x7c, 0x92,
  0x87, 0x6b, 0x7d, 0x97, 0x68, 0xae, 0x6e, 0x77, 0xac, 0x66, 0x77, 0x89,
  0xa4, 0x82, 0x75, 0x98, 0xb1, 0x80, 0x75, 0x78, 0x99, 0x9e, 0x63, 0x6c,
  0xb0, 0xab, 0x75, 0xa2, 0x9c, 0x75, 0x42, 0x78, 0x9c, 0xa0, 0x72, 0x7f,
  0x4a, 0x68, 0x4e, 0xa8, 0xcf, 0xb5, 0x9e, 0x87, 0x79, 0x76, 0x16, 0x91,
  0xbb, 0xa7, 0xb8, 0xad, 0x58, 0x6a, 0x70, 0x96, 0xc8, 0xc1, 0xba, 0x9e,
  0x52, 0x7b, 0x6f, 0xb1, 0x9f, 0xa5, 0x8c, 0x96, 0x56, 0x5a, 0x7e, 0x95,
  0xa0, 0x5f, 0x63, 0xad, 0x77, 0x64, 0x85, 0x8d, 0xc3, 0x3e, 0x87, 0x9f,
  0xa9, 0x71, 0xb5, 0xa1, 0xdd, 0x3a, 0x15, 0xcb, 0xb7, 0xb2, 0xba, 0xaa,
  0xe5, 0x60, 0x6b, 0x98, 0x2a, 0xc9, 0x61, 0x93, 0xe8, 0x46, 0xa8, 0xcb,
  0x91, 0x9f, 0x97, 0x58, 0xc1, 0x5c, 0x8b, 0xab, 0x6c, 0xae, 0xa5, 0x61,
  0xbc, 0x56, 0x8c, 0xad, 0x82, 0x6a, 0xa6, 0x66, 0xbb, 0x82, 0xdc, 0xbf,
  0x5c, 0x61, 0x89, 0x4d, 0xba, 0x79, 0xc7, 0xb2, 0x60, 0x6c, 0x4f, 0x78,
  0xc5, 0x8c, 0x8e, 0x88, 0x51, 0xaf, 0x37, 0x98, 0x96, 0x88, 0x81, 0x72,
  0x7d, 0x6c, 0x81, 0x98, 0x95, 0x37, 0x90, 0x97, 0x9d, 0xa5, 0x8a, 0x92,
  0x8f, 0xa7, 0xa6, 0xb5, 0x8b, 0x7f, 0x6e, 0x7e, 0x9c, 0xb7, 0x8e, 0x8e,
  0xad, 0x91, 0x6d, 0x9b, 0xa9, 0xc5, 0xa6, 0x7e, 0x7d, 0x7c, 0x58, 0x8a,
  0x92, 0xad, 0x99, 0x8f, 0x7b, 0x8e, 0x41, 0x8e, 0xb3, 0xad, 0x6d, 0x7a,
  0x79, 0x7e, 0x2e, 0x85, 0xca, 0x8a, 0x80, 0xb0, 0x6b, 0x7f, 0x4d, 0x93,
  0x89, 0xb7, 0x70, 0xc7, 0x6c, 0x6c, 0x65, 0x89, 0x8b, 0x9b, 0x77, 0xa8,
  0x70, 0x70, 0x84, 0x8f, 0x7e, 0x68, 0xa9, 0xc4, 0x8c, 0x6a, 0x61, 0x72,
  0xb8, 0x71, 0xa5, 0xbe, 0x8e, 0x61, 0xa5, 0x9b, 0xed, 0x49, 0x31, 0xd8,
  0x8e, 0xbc, 0xbc, 0x96, 0xcd, 0x75, 0x8c, 0xb7, 0x2b, 0xc6, 0x99, 0x9e,
  0xac, 0x4c, 0xa4, 0xd9, 0x78, 0xaf, 0x87, 0x88, 0xe5, 0x20, 0xa3, 0xb8,
  0x91, 0x60, 0xaa, 0x7c, 0xa1, 0x3c, 0x57, 0xae, 0x8a, 0x7b, 0xa4, 0x60,
  0xc1, 0x72, 0xac, 0xb8, 0x53, 0x9c, 0x6d, 0x4b, 0xb6, 0x9a, 0xa5, 0xab,
  0x3f, 0x9f, 0x6e, 0x59, 0xcf, 0x99, 0xb2, 0xa7, 0x68, 0x88, 0x5b, 0x6b,
  0xaf, 0x97, 0x6b, 0x7a, 0x6b, 0xb4, 0x53, 0x93, 0x85, 0x4f, 0x7d, 0xb0,
  0x84, 0xab, 0x80, 0xa4, 0x6e, 0x8f, 0x5a, 0x9e, 0x9c, 0x7d, 0x6d, 0xa0,
  0x9b, 0x92, 0x86, 0xa2, 0xb7, 0x8a, 0x96, 0x9f, 0xa6, 0xa2, 0x7e, 0x96,
  0x93, 0x8b, 0x61, 0x84, 0x8c, 0xc0, 0x6e, 0xa9, 0x56, 0x89, 0x54, 0x7a,
  0xb3, 0xd4, 0x72, 0x9f, 0x7e, 0x80, 0x32, 0x91, 0xb0, 0x92, 0x8a, 0xaa,
  0x80, 0x60, 0x85, 0x8c, 0x91, 0xb7, 0x85, 0xc8, 0x5c, 0x8a, 0x78, 0x9d,
  0xb1, 0xac, 0x68, 0xc8, 0x7c, 0x66, 0x80, 0x80, 0xb7, 0x7b, 0x83, 0xcc,
  0x81, 0x76, 0x71, 0x75, 0xd2, 0x5d, 0x8c, 0xcf, 0xa2, 0x95, 0xbb, 0x9c,
  0xba, 0x66, 0x53, 0xdc, 0xa8, 0xdf, 0xaf, 0x96, 0xe7, 0x5c, 0xa4, 0xb2,
  0x4e, 0xc6, 0x77, 0x8c, 0xcf, 0x73, 0x8f, 0xd3, 0x98, 0xcc, 0xc3, 0x59,
  0xc0, 0x4a, 0x79, 0xcb, 0x88, 0x85, 0xa2, 0x4d, 0xb5, 0x44, 0xa0, 0xb7,
  0x7c, 0x70, 0x9d, 0x56, 0xca, 0x42, 0xc2, 0xb3, 0x78, 0x4f, 0x7a, 0x3a,
  0xe1, 0x75, 0xa1, 0xad, 0x70, 0x97, 0x6a, 0x65, 0xd1, 0xbd, 0x8e, 0xb6,
  0x8a, 0x9e, 0x84, 0x79, 0x9f, 0x57, 0x59, 0x8e, 0x64, 0xa3, 0x82, 0x8e,
  0x9a, 0x58, 0x73, 0x91, 0x6b, 0x85, 0x8e, 0x7a, 0x4d, 0x7f, 0x7e, 0x95,
  0x9a, 0x92, 0x6f, 0x97, 0x78, 0xa6, 0x9a, 0xab, 0xa6, 0x78, 0xab, 0x90,
  0x9e, 0x92, 0x66, 0x98, 0x85, 0xa0, 0x5e, 0x73, 0x85, 0x95, 0x5f, 0x8d,
  0x6a, 0x94, 0x47, 0x79, 0x7d, 0xbc, 0xa9, 0xb0, 0xad, 0x92, 0x23, 0x7d,
  0x84, 0xb8, 0x95, 0x8d, 0x77, 0x84, 0x3b, 0x89, 0x78, 0xa3, 0x93, 0xb0,
  0x50, 0x72, 0x61, 0x90, 0x7d, 0xa5, 0x7b, 0xcc, 0x75, 0x5b, 0x6a, 0x8e,
  0x6c, 0x7f, 0x98, 0xcb, 0x81, 0x81, 0x86, 0x72, 0xa9, 0x4d, 0x87, 0xb1,
  0x79, 0x95, 0x97, 0x86, 0xca, 0x76, 0x88, 0xfd, 0x94, 0xab, 0xc2, 0x8e,
  0xdb, 0x7d, 0x7b, 0xd9, 0x60, 0xcd, 0x95, 0x87, 0xd5, 0x8a, 0x94, 0xe0,
  0x82, 0xb5, 0x90, 0x68, 0xbd, 0x51, 0xaa, 0xe8, 0x92, 0xd1, 0x95, 0x58,
  0xa1, 0x39, 0x74, 0xb3, 0x84, 0x9b, 0x84, 0x50, 0xab, 0x4d, 0xa5, 0xb6,
  0x6b, 0xa1, 0x7c, 0x5e, 0xb9, 0x78, 0xc5, 0xc6, 0x78, 0xa2, 0x7a, 0x64,
  0xc7, 0xbf, 0xa5, 0x97, 0x97, 0xa3, 0xad, 0x7f, 0x8f, 0x9b, 0x8b, 0x7e,
  0x77, 0x99, 0x9d, 0x77, 0x6b, 0x67, 0x74, 0xa9, 0x99, 0xc2, 0x5c, 0x8c,
  0x97, 0x67, 0x4b, 0xbd, 0xb4, 0x9f, 0x72, 0x99, 0x87, 0x7e, 0x8e, 0x9a,
  0xd1, 0xc0, 0x6b, 0x9c, 0xc2, 0xa7, 0x6a, 0x92, 0x7e, 0x81, 0x6f, 0x6c,
  0x73, 0xb6, 0x7b, 0xaf, 0x53, 0x9b, 0x56, 0xa8, 0x88, 0xd5, 0xb3, 0x8f,
  0x9a, 0x98, 0x6a, 0x82, 0x5c, 0xa3, 0x76, 0xb8, 0x81, 0x8f, 0x55, 0x8b,
  0x62, 0x82, 0x98, 0xcb, 0x59, 0x76, 0x57, 0x91, 0x71, 0x9b, 0x74, 0xd8,
  0x7f, 0x49, 0x62, 0x81, 0x57, 0x8a, 0x83, 0xb3, 0x86, 0x44, 0x98, 0x94,
  0x75, 0xa2, 0x87, 0xa8, 0x93, 0xa2, 0x9f, 0x86, 0x92, 0x63, 0x77, 0xbd,
  0x9e, 0xd0, 0xa8, 0x94, 0xa7, 0x70, 0x70, 0x97, 0x63, 0xa7, 0x85, 0x8c,
  0x87, 0x8c, 0x8f, 0xad, 0x70, 0x7b, 0x8c, 0x63, 0x7c, 0x8b, 0x82, 0xb9,
  0x68, 0x65, 0x99, 0x35, 0x7f, 0x77, 0x7f, 0xa4, 0x77, 0x92, 0x88, 0x3f,
  0x9c, 0x66, 0x5e, 0xac, 0x64, 0x98, 0x8a, 0x25, 0x6f, 0x8e, 0x7c, 0xa3,
  0x53, 0xab, 0x67, 0x3e, 0xa6, 0x94, 0x87, 0x8d, 0x83, 0x89, 0xa5, 0x87,
  0xa1, 0x62, 0x9a, 0x89, 0x8e, 0x7a, 0xaa, 0x7a, 0x9b, 0x84, 0xac, 0x93,
  0xa3, 0xaa, 0x97, 0x93, 0x85, 0xa7, 0x67, 0x7c, 0xb9, 0x8c, 0x8f, 0x95,
  0x93, 0x7a, 0x5d, 0x99, 0x88, 0xa8, 0x7d, 0x9b, 0x89, 0x98, 0x5d, 0xdd,
  0x62, 0x80, 0x6c, 0x95, 0x84, 0x9f, 0x9b, 0x9d, 0x6c, 0x82, 0x56, 0x6e,
  0x80, 0x9a, 0x94, 0xcd, 0x55, 0x9c, 0x96, 0x83, 0x80, 0xa3, 0x82, 0xdc,
  0x80, 0x81, 0x7d, 0x79, 0x60, 0x6c, 0x7f, 0xa3, 0x67, 0x98, 0x46, 0x93,
  0x86, 0x86, 0x89, 0x99, 0x68, 0x69, 0x96, 0x8a, 0x56, 0x8f, 0x6b, 0xb2,
  0x59, 0x5f, 0x97, 0x55, 0x95, 0xad, 0x80, 0x88, 0x7e, 0x91, 0xac, 0x69,
  0x83, 0x83, 0x98, 0xaf, 0xa1, 0xa8, 0x98, 0x73, 0x58, 0x9a, 0x93, 0x8c,
  0x44, 0x9c, 0x87, 0xb9, 0x6d, 0x80, 0x6f, 0xa0, 0x63, 0xa7, 0x68, 0x8f,
  0x8d, 0x74, 0xac, 0xb1, 0x6e, 0xad, 0x87, 0x59, 0x61, 0x4a, 0x72, 0xa2,
  0x7d, 0x7a, 0x69, 0x48, 0x74, 0x54, 0x96, 0xc1, 0x6d, 0xac, 0x6b, 0x47,
  0x8c, 0x96, 0x6d, 0xd2, 0x7c, 0xa1, 0x91, 0x43, 0x83, 0x99, 0x90, 0xa8,
  0x7a, 0xcb, 0xa6, 0x7e, 0x87, 0x7d, 0x77, 0x8b, 0x70, 0xa6, 0xa8, 0x98,
  0x58, 0x69, 0x6f, 0xb3, 0x8d, 0x87, 0x98, 0xbc, 0x90, 0x6d, 0x4d, 0xbd,
  0xaf, 0xa7, 0xa9, 0xaf, 0x94, 0x71, 0x5b, 0xbf, 0x88, 0x9e, 0x90, 0x6c,
  0x56, 0xae, 0x9c, 0xa5, 0x6c, 0x97, 0x8d, 0x77, 0x87, 0xa2, 0x75, 0xaf,
  0x84, 0x5a, 0x78, 0x65, 0x68, 0xa3, 0x6d, 0x93, 0x73, 0x89, 0x9b, 0x6d,
  0x74, 0xb5, 0x99, 0x8d, 0x80, 0xa3, 0x6b, 0x73, 0x8c, 0x91, 0x7b, 0x88,
  0x5a, 0x74, 0x65, 0x82, 0x58, 0x90, 0x4b, 0x74, 0x76, 0x6d, 0x4c, 0x76,
  0xa1, 0x8a, 0x77, 0xaf, 0x28, 0xa1, 0x5d, 0x6f, 0x00, 0x00, 0x0e, 0x00,
  0x18, 0x00, 0x08, 0x00, 0x07, 0x00, 0x0c, 0x00, 0x10, 0x00, 0x14, 0x00,
  0x0e, 0x00, 0x00, 0x00, 0x00, 0x00, 0x00, 0x02, 0x10, 0x00, 0x00, 0x00,
  0x01, 0x00, 0x00, 0x00, 0x10, 0x00, 0x00, 0x00, 0x28, 0x00, 0x00, 0x00,
  0x01, 0x00, 0x00, 0x00, 0x03, 0x00, 0x00, 0x00, 0x0b, 0x00, 0x00, 0x00,
  0x4d, 0x61, 0x74, 0x4d, 0x75, 0x6c, 0x5f, 0x62, 0x69, 0x61, 0x73, 0x00,
  0x0c, 0x00, 0x0c, 0x00, 0x00, 0x00, 0x00, 0x00, 0x04, 0x00, 0x08, 0x00,
  0x0c, 0x00, 0x00, 0x00, 0x14, 0x00, 0x00, 0x00, 0x04, 0x00, 0x00, 0x00,
  0x01, 0x00, 0x00, 0x00, 0x00, 0x00, 0x00, 0x00, 0x00, 0x00, 0x00, 0x00,
  0x01, 0x00, 0x00, 0x00, 0xf5, 0x5e, 0xbb, 0x37, 0x0c, 0x00, 0x00, 0x00,
  0xcf, 0x04, 0x00, 0x00, 0x30, 0xff, 0xff, 0xff, 0x2b, 0xfe, 0xff, 0xff,
  0x03, 0x00, 0x00, 0x00, 0xb4, 0x00, 0x00, 0x00, 0x5c, 0x00, 0x00, 0x00,
  0x04, 0x00, 0x00, 0x00, 0xc0, 0xff, 0xff, 0xff, 0x00, 0x00, 0x00, 0x09,
  0x02, 0x00, 0x00, 0x00, 0x10, 0x00, 0x00, 0x00, 0x14, 0x00, 0x00, 0x00,
  0x24, 0x00, 0x00, 0x00, 0x14, 0x00, 0x00, 0x00, 0x01, 0x00, 0x00, 0x00,
  0x04, 0x00, 0x00, 0x00, 0x01, 0x00, 0x00, 0x00, 0x05, 0x00, 0x00, 0x00,
  0x00, 0x00, 0x00, 0x00, 0x00, 0x00, 0x06, 0x00, 0x08, 0x00, 0x04, 0x00,
  0x06, 0x00, 0x00, 0x00, 0x00, 0x00, 0x80, 0x3f, 0x14, 0x00, 0x1c, 0x00,
  0x08, 0x00, 0x0c, 0x00, 0x10, 0x00, 0x07, 0x00, 0x14, 0x00, 0x00, 0x00,
  0x00, 0x00, 0x18, 0x00, 0x14, 0x00, 0x00, 0x00, 0x00, 0x00, 0x00, 0x08,
  0x01, 0x00, 0x00, 0x00, 0x10, 0x00, 0x00, 0x00, 0x1c, 0x00, 0x00, 0x00,
  0x28, 0x00, 0x00, 0x00, 0x1c, 0x00, 0x00, 0x00, 0x03, 0x00, 0x00, 0x00,
  0x02, 0x00, 0x00, 0x00, 0x07, 0x00, 0x00, 0x00, 0x01, 0x00, 0x00, 0x00,
  0x01, 0x00, 0x00, 0x00, 0x04, 0x00, 0x00, 0x00, 0x00, 0x00, 0x00, 0x00,
  0x04, 0x00, 0x04, 0x00, 0x04, 0x00, 0x00, 0x00, 0x14, 0x00, 0x18, 0x00,
  0x00, 0x00, 0x08, 0x00, 0x0c, 0x00, 0x07, 0x00, 0x10, 0x00, 0x00, 0x00,
  0x00, 0x00, 0x14, 0x00, 0x14, 0x00, 0x00, 0x00, 0x00, 0x00, 0x00, 0x02,
  0x10, 0x00, 0x00, 0x00, 0x1c, 0x00, 0x00, 0x00, 0x30, 0x00, 0x00, 0x00,
  0x1c, 0x00, 0x00, 0x00, 0x03, 0x00, 0x00, 0x00, 0x03, 0x00, 0x00, 0x00,
  0x06, 0x00, 0x00, 0x00, 0x00, 0x00, 0x00, 0x00, 0x01, 0x00, 0x00, 0x00,
  0x02, 0x00, 0x00, 0x00, 0x00, 0x00, 0x00, 0x00, 0x0c, 0x00, 0x10, 0x00,
  0x00, 0x00, 0x04, 0x00, 0x08, 0x00, 0x0c, 0x00, 0x0c, 0x00, 0x00, 0x00,
  0x02, 0x00, 0x00, 0x00, 0x02, 0x00, 0x00, 0x00, 0x08, 0x00, 0x00, 0x00,
  0x03, 0x00, 0x00, 0x00, 0x24, 0x00, 0x00, 0x00, 0x14, 0x00, 0x00, 0x00,
  0x04, 0x00, 0x00, 0x00, 0xfa, 0xff, 0xff, 0xff, 0x00, 0x19, 0x06, 0x00,
  0x06, 0x00, 0x05, 0x00, 0x06, 0x00, 0x00, 0x00, 0x00, 0x09, 0x06, 0x00,
  0x08, 0x00, 0x07, 0x00, 0x06, 0x00, 0x00, 0x00, 0x00, 0x00, 0x00, 0x04};
const int g_tiny_conv_micro_features_model_data_len = 14280;
